<unk>	0
<s>	0
</s>	0
<pad>	0
<mask>	0
▁a	-0
in	-1
▁t	-2
he	-3
on	-4
er	-5
at	-6
or	-7
es	-8
ed	-9
ic	-10
is	-11
an	-12
▁the	-13
en	-14
▁c	-15
ar	-16
al	-17
▁o	-18
▁s	-19
ing	-20
▁an	-21
▁of	-22
▁p	-23
▁w	-24
▁in	-25
it	-26
re	-27
▁f	-28
==	-29
▁b	-30
ion	-31
▁==	-32
▁and	-33
as	-34
om	-35
▁m	-36
▁l	-37
▁d	-38
▁S	-39
▁to	-40
▁T	-41
el	-42
▁A	-43
▁P	-44
ro	-45
ur	-46
ch	-47
us	-48
ist	-49
le	-50
ri	-51
▁1	-52
ent	-53
ag	-54
ce	-55
▁is	-56
▁C	-57
▁as	-58
ut	-59
▁n	-60
ct	-61
ation	-62
▁N	-63
et	-64
▁19	-65
▁E	-66
▁M	-67
▁for	-68
am	-69
ics	-70
▁re	-71
ys	-72
▁2	-73
▁I	-74
gu	-75
▁(	-76
em	-77
▁The	-78
omp	-79
▁th	-80
ard	-81
▁L	-82
ol	-83
iv	-84
▁h	-85
▁20	-86
un	-87
▁us	-88
angu	-89
anguag	-90
hem	-91
ry	-92
ob	-93
st	-94
riz	-95
▁al	-96
▁pro	-97
ces	-98
▁on	-99
▁languag	-100
ci	-101
il	-102
▁R	-103
ward	-104
▁or	-105
ical	-106
hys	-107
rize	-108
▁con	-109
ad	-110
ir	-111
▁be	-112
▁by	-113
hemist	-114
um	-115
ter	-116
ig	-117
im	-118
▁B	-119
▁comp	-120
hysics	-121
ot	-122
ul	-123
▁J	-124
ith	-125
ine	-126
hemistry	-127
id	-128
od	-129
▁F	-130
ant	-131
▁award	-132
ab	-133
▁e	-134
obel	-135
▁was	-136
▁Nobel	-137
ect	-138
LP	-139
ow	-140
res	-141
▁W	-142
NLP	-143
ence	-144
▁awarded	-145
▁language	-146
ck	-147
so	-148
ate	-149
ear	-150
os	-151
qu	-152
▁D	-153
ural	-154
▁that	-155
▁with	-156
ap	-157
gr	-158
▁H	-159
▁O	-160
ean	-161
her	-162
nal	-163
ord	-164
▁st	-165
▁wh	-166
ly	-167
our	-168
MNLP	-169
▁comput	-170
▁Physics	-171
if	-172
fer	-173
ies	-174
▁su	-175
▁prize	-176
pl	-177
ial	-178
▁used	-179
atural	-180
▁EMNLP	-181
ary	-182
ates	-183
▁are	-184
▁In	-185
oo	-186
▁"	-187
▁v	-188
and	-189
▁at	-190
▁also	-191
pt	-192
▁201	-193
▁mean	-194
ay	-195
og	-196
ack	-197
ers	-198
ure	-199
cess	-200
ge	-201
ve	-202
ach	-203
ich	-204
ive	-205
led	-206
▁It	-207
▁Re	-208
▁St	-209
▁de	-210
▁qu	-211
ated	-212
ie	-213
▁G	-214
▁K	-215
ory	-216
ver	-217
ences	-218
▁meaning	-219
▁natural	-220
ain	-221
ass	-222
und	-223
ations	-224
ournal	-225
iz	-226
ks	-227
uct	-228
ment	-229
▁sci	-230
▁chemistry	-231
ud	-232
ore	-233
▁fr	-234
▁process	-235
cl	-236
ee	-237
pp	-238
th	-239
▁cl	-240
▁ex	-241
gram	-242
▁===	-243
antum	-244
▁Journal	-245
ak	-246
▁U	-247
gan	-248
rit	-249
▁co	-250
ther	-251
▁Chemistry	-252
op	-253
nit	-254
ort	-255
▁191	-256
▁192	-257
▁200	-258
▁202	-259
icial	-260
▁which	-261
ferences	-262
▁quantum	-263
▁languages	-264
ia	-265
oc	-266
est	-267
▁it	-268
▁li	-269
orch	-270
▁not	-271
▁Prize	-272
▁computer	-273
).	-274
ex	-275
▁y	-276
ace	-277
ame	-278
ber	-279
oin	-280
ong	-281
▁en	-282
▁sp	-283
able	-284
igin	-285
ject	-286
▁rep	-287
▁from	-288
▁word	-289
resent	-290
▁origin	-291
▁science	-292
ave	-293
cad	-294
ens	-295
ess	-296
ill	-297
ple	-298
str	-299
ual	-300
▁bi	-301
▁im	-302
▁can	-303
▁has	-304
▁res	-305
bject	-306
▁inter	-307
▁program	-308
▁References	-309
▁processing	-310
gh	-311
ke	-312
art	-313
etw	-314
gor	-315
ish	-316
ran	-317
▁tw	-318
cept	-319
oint	-320
olog	-321
▁cre	-322
▁one	-323
▁ser	-324
emant	-325
ering	-326
ition	-327
▁cont	-328
▁have	-329
▁such	-330
ff	-331
ym	-332
▁k	-333
age	-334
ata	-335
ech	-336
ely	-337
low	-338
tem	-339
ult	-340
▁ne	-341
aure	-342
clud	-343
gine	-344
irst	-345
ived	-346
ning	-347
▁int	-348
▁met	-349
cadem	-350
nited	-351
▁year	-352
achine	-353
▁class	-354
▁other	-355
▁United	-356
gineering	-357
),	-358
0,	-359
ms	-360
▁g	-361
▁–	-362
ari	-363
ell	-364
ere	-365
ide	-366
ity	-367
omm	-368
red	-369
rib	-370
ugh	-371
▁Al	-372
▁An	-373
▁Ex	-374
▁Th	-375
▁pl	-376
▁sh	-377
ions	-378
▁Sci	-379
▁See	-380
▁bas	-381
▁dis	-382
▁mat	-383
ganic	-384
stand	-385
▁like	-386
▁first	-387
▁physics	-388
1,	-389
2,	-390
3,	-391
bs	-392
ov	-393
se	-394
ast	-395
een	-396
ork	-397
orm	-398
per	-399
▁As	-400
▁ar	-401
▁di	-402
▁fi	-403
▁we	-404
ient	-405
ming	-406
▁but	-407
▁mod	-408
▁sys	-409
▁two	-410
▁Comp	-411
▁been	-412
▁pack	-413
▁rece	-414
▁were	-415
istory	-416
▁point	-417
▁States	-418
▁includ	-419
▁semant	-420
▁system	-421
▁represent	-422
6,	-423
ua	-424
ub	-425
up	-426
▁j	-427
ase	-428
ice	-429
igh	-430
ite	-431
mer	-432
ten	-433
wed	-434
▁ad	-435
▁ch	-436
▁gr	-437
apan	-438
comp	-439
inks	-440
unct	-441
▁Mar	-442
▁use	-443
ating	-444
▁lear	-445
▁this	-446
▁vari	-447
gorith	-448
ternal	-449
▁Japan	-450
▁laure	-451
▁links	-452
standing	-453
▁concept	-454
▁External	-455
▁algorith	-456
▁learning	-457
▁engineering	-458
▁programming	-459
19	-460
ac	-461
aph	-462
ark	-463
ars	-464
eld	-465
ext	-466
hen	-467
lex	-468
now	-469
ond	-470
ons	-471
ook	-472
ost	-473
ous	-474
out	-475
▁Ar	-476
▁Ch	-477
ines	-478
ingu	-479
omet	-480
▁ann	-481
▁app	-482
▁des	-483
▁fol	-484
▁its	-485
▁med	-486
▁und	-487
bsite	-488
ology	-489
ordin	-490
riter	-491
▁This	-492
▁know	-493
struct	-494
▁field	-495
▁funct	-496
▁their	-497
▁using	-498
▁Academ	-499
▁follow	-500
▁website	-501
▁representation	-502
".	-503
4,	-504
9,	-505
br	-506
ue	-507
act	-508
are	-509
hed	-510
hes	-511
hod	-512
ild	-513
man	-514
ole	-515
oor	-516
tif	-517
unt	-518
vel	-519
vid	-520
▁En	-521
▁tr	-522
ific	-523
omin	-524
ound	-525
ular	-526
▁193	-527
▁194	-528
▁199	-529
▁Lua	-530
▁Mod	-531
▁pos	-532
▁str	-533
▁tas	-534
earch	-535
hemat	-536
ledge	-537
velop	-538
▁anal	-539
▁comm	-540
▁data	-541
▁desc	-542
▁sing	-543
▁thro	-544
wedish	-545
▁torch	-546
▁under	-547
ational	-548
ference	-549
inguist	-550
▁Comput	-551
▁series	-552
tificial	-553
▁coordin	-554
▁created	-555
▁develop	-556
▁computing	-557
7,	-558
8,	-559
OO	-560
aw	-561
ec	-562
ev	-563
ph	-564
yn	-565
▁Z	-566
ane	-567
ble	-568
ded	-569
ert	-570
ign	-571
ile	-572
ose	-573
ppl	-574
ram	-575
ric	-576
ubl	-577
ust	-578
▁AI	-579
▁ac	-580
▁bu	-581
▁em	-582
▁sc	-583
▁un	-584
duct	-585
form	-586
ight	-587
▁(19	-588
▁195	-589
▁Nov	-590
▁Off	-591
▁foo	-592
▁out	-593
▁rel	-594
▁spe	-595
▁sym	-596
▁ter	-597
▁who	-598
▁won	-599
alled	-600
ative	-601
ember	-602
rizes	-603
▁betw	-604
▁more	-605
▁netw	-606
▁rele	-607
▁show	-608
▁These	-609
▁Torch	-610
▁graph	-611
▁imple	-612
▁years	-613
ization	-614
osition	-615
▁object	-616
structed	-617
▁between	-618
▁machine	-619
▁subject	-620
▁through	-621
▁Official	-622
▁concepts	-623
▁mathemat	-624
▁received	-625
▁semantic	-626
▁implement	-627
▁knowledge	-628
()	-629
PL	-630
ax	-631
ew	-632
ft	-633
hn	-634
lo	-635
oy	-636
sl	-637
▁Y	-638
▁i	-639
ayb	-640
bol	-641
ied	-642
ken	-643
les	-644
mal	-645
ock	-646
ony	-647
pen	-648
rol	-649
ron	-650
ton	-651
van	-652
▁Py	-653
▁he	-654
▁so	-655
ages	-656
ance	-657
cipl	-658
echn	-659
hods	-660
ized	-661
oyal	-662
pect	-663
ules	-664
ysis	-665
▁197	-666
▁Bri	-667
▁Con	-668
▁Dis	-669
▁ind	-670
▁par	-671
▁rec	-672
eries	-673
ished	-674
ribut	-675
uring	-676
▁2017	-677
▁Rich	-678
▁Wayb	-679
▁cons	-680
▁mult	-681
▁song	-682
chived	-683
rolled	-684
▁Inter	-685
▁Royal	-686
▁Their	-687
▁based	-688
▁build	-689
▁often	-690
▁tasks	-691
anguage	-692
▁Prizes	-693
▁called	-694
▁provid	-695
▁scient	-696
▁single	-697
▁symbol	-698
▁theory	-699
oorganic	-700
▁Academy	-701
▁Machine	-702
▁Natural	-703
▁Richard	-704
▁Swedish	-705
▁Wayback	-706
▁complex	-707
▁describ	-708
▁discipl	-709
▁history	-710
▁systems	-711
▁November	-712
▁Sciences	-713
▁function	-714
▁linguist	-715
▁packages	-716
▁algorithm	-717
▁classical	-718
▁laureates	-719
▁artificial	-720
▁constructed	-721
▁understanding	-722
#1	-723
20	-724
5,	-725
5.	-726
AM	-727
IT	-728
LT	-729
SE	-730
ef	-731
ne	-732
to	-733
yl	-734
yp	-735
▁'	-736
▁3	-737
▁Q	-738
PLE	-739
ail	-740
der	-741
erg	-742
ese	-743
ict	-744
iew	-745
ime	-746
ind	-747
ode	-748
ome	-749
one	-750
oob	-751
ott	-752
udy	-753
uit	-754
ull	-755
urp	-756
▁10	-757
▁Ad	-758
▁De	-759
▁El	-760
▁ab	-761
▁ax	-762
▁ed	-763
▁pe	-764
▁ph	-765
ener	-766
here	-767
ican	-768
illi	-769
ivid	-770
omic	-771
otes	-772
ough	-773
rect	-774
uman	-775
▁Man	-776
▁Met	-777
▁Pro	-778
▁Rep	-779
▁all	-780
▁any	-781
▁ass	-782
▁ent	-783
▁mak	-784
▁per	-785
▁sim	-786
▁sol	-787
ample	-788
arson	-789
ature	-790
brary	-791
class	-792
ector	-793
ities	-794
ively	-795
ognit	-796
oobar	-797
orted	-798
other	-799
pplic	-800
ument	-801
▁Amer	-802
▁They	-803
▁dist	-804
▁each	-805
▁into	-806
▁only	-807
▁supp	-808
▁them	-809
▁tran	-810
▁uses	-811
▁well	-812
▁will	-813
ically	-814
▁Notes	-815
▁There	-816
▁count	-817
▁frame	-818
▁model	-819
▁organ	-820
▁space	-821
▁study	-822
▁theor	-823
▁train	-824
▁where	-825
▁words	-826
▁Larson	-827
▁annual	-828
▁criter	-829
▁decomp	-830
national	-831
▁methods	-832
▁organic	-833
▁package	-834
▁Archived	-835
▁Computer	-836
▁Japanese	-837
▁Language	-838
▁analysis	-839
▁programs	-840
▁provides	-841
▁symbolic	-842
▁including	-843
▁bioorganic	-844
▁linguistic	-845
▁coordinates	-846
▁implemented	-847
▁decomposition	-848
89	-849
CL	-850
LC	-851
MR	-852
ai	-853
cc	-854
co	-855
ho	-856
ik	-857
ld	-858
ns	-859
sp	-860
te	-861
ts	-862
ux	-863
▁V	-864
▁r	-865
FOO	-866
LTK	-867
MRC	-868
agg	-869
all	-870
app	-871
arl	-872
ays	-873
bum	-874
ced	-875
ead	-876
eas	-877
ful	-878
gul	-879
ian	-880
ili	-881
ina	-882
oll	-883
oth	-884
oun	-885
pri	-886
pro	-887
ree	-888
rim	-889
rix	-890
son	-891
ule	-892
uss	-893
ven	-894
wit	-895
ynt	-896
▁Dr	-897
▁Id	-898
▁Ph	-899
▁SE	-900
▁Sh	-901
▁Un	-902
▁Wh	-903
▁do	-904
▁ro	-905
▁up	-906
ally	-907
ames	-908
ased	-909
ater	-910
ayer	-911
ches	-912
emon	-913
enns	-914
ered	-915
ever	-916
ible	-917
imes	-918
ired	-919
ists	-920
ited	-921
ives	-922
ling	-923
olec	-924
orks	-925
pril	-926
ress	-927
ript	-928
roup	-929
soci	-930
thon	-931
uate	-932
ures	-933
urie	-934
usic	-935
view	-936
ware	-937
work	-938
▁189	-939
▁190	-940
▁Foo	-941
▁MIT	-942
▁Res	-943
▁SAM	-944
▁Slo	-945
▁Wal	-946
▁doc	-947
▁due	-948
▁her	-949
▁phr	-950
▁sec	-951
▁set	-952
▁top	-953
artic	-954
atist	-955
elect	-956
ellig	-957
ensor	-958
erson	-959
itive	-960
ivers	-961
round	-962
ublic	-963
vania	-964
▁Brie	-965
▁Cate	-966
▁Comm	-967
▁Fran	-968
▁Less	-969
▁NLTK	-970
▁Zott	-971
▁back	-972
▁both	-973
▁coll	-974
▁core	-975
▁crit	-976
▁five	-977
▁name	-978
▁open	-979
▁prim	-980
▁swit	-981
▁term	-982
▁than	-983
▁they	-984
▁tool	-985
▁user	-986
adient	-987
ennsyl	-988
etical	-989
▁April	-990
▁Found	-991
▁March	-992
▁Techn	-993
▁appro	-994
▁basic	-995
▁being	-996
▁human	-997
▁somet	-998
ication	-999
▁Python	-1000
▁SAMPLE	-1001
▁Sloane	-1002
▁Tensor	-1003
▁academ	-1004
▁appear	-1005
▁applic	-1006
▁common	-1007
▁fields	-1008
▁formal	-1009
▁inform	-1010
▁interf	-1011
▁neural	-1012
▁review	-1013
▁serial	-1014
▁struct	-1015
▁transl	-1016
▁vector	-1017
ognition	-1018
olecular	-1019
ological	-1020
▁History	-1021
▁Lessons	-1022
▁Pennsyl	-1023
▁Science	-1024
▁example	-1025
▁library	-1026
▁network	-1027
▁product	-1028
▁related	-1029
▁support	-1030
elligence	-1031
ributions	-1032
▁Republic	-1033
▁Research	-1034
▁document	-1035
▁laureate	-1036
▁positive	-1037
▁released	-1038
▁research	-1039
▁computers	-1040
▁framework	-1041
▁processes	-1042
▁Foundation	-1043
▁algorithms	-1044
▁conference	-1045
▁controlled	-1046
▁scientific	-1047
▁disciplines	-1048
▁Pennsylvania	-1049
▁intelligence	-1050
▁mathematical	-1051
",	-1052
."	-1053
0.	-1054
8)	-1055
AR	-1056
Co	-1057
Hu	-1058
IS	-1059
av	-1060
dg	-1061
gl	-1062
ix	-1063
oe	-1064
su	-1065
wn	-1066
yz	-1067
▁x	-1068
2).	-1069
BAR	-1070
VLC	-1071
ade	-1072
ale	-1073
amb	-1074
amp	-1075
ana	-1076
apt	-1077
ash	-1078
att	-1079
cem	-1080
cre	-1081
def	-1082
ern	-1083
eth	-1084
foo	-1085
gin	-1086
hol	-1087
ick	-1088
igu	-1089
iod	-1090
irc	-1091
itt	-1092
ker	-1093
kit	-1094
mat	-1095
net	-1096
oma	-1097
omb	-1098
onn	-1099
orn	-1100
oss	-1101
own	-1102
pis	-1103
pre	-1104
put	-1105
rea	-1106
ris	-1107
ses	-1108
tto	-1109
uch	-1110
uld	-1111
urr	-1112
▁#1	-1113
▁15	-1114
▁At	-1115
▁Be	-1116
▁Cl	-1117
▁Em	-1118
▁Es	-1119
▁Eu	-1120
▁Ha	-1121
▁He	-1122
▁Pr	-1123
▁Sp	-1124
▁TV	-1125
▁ev	-1126
▁fe	-1127
▁ge	-1128
▁no	-1129
▁ob	-1130
abil	-1131
abor	-1132
aces	-1133
adel	-1134
amet	-1135
anto	-1136
ason	-1137
awab	-1138
book	-1139
cial	-1140
cord	-1141
ding	-1142
ense	-1143
ents	-1144
fter	-1145
grad	-1146
icro	-1147
idea	-1148
ilar	-1149
ined	-1150
ital	-1151
iter	-1152
izab	-1153
land	-1154
merg	-1155
ogic	-1156
oice	-1157
oken	-1158
olar	-1159
orea	-1160
over	-1161
plif	-1162
port	-1163
pple	-1164
rick	-1165
sect	-1166
side	-1167
soft	-1168
uals	-1169
ying	-1170
▁(20	-1171
▁196	-1172
▁And	-1173
▁Bar	-1174
▁Col	-1175
▁FOO	-1176
▁Max	-1177
▁SEK	-1178
▁Ste	-1179
▁Wil	-1180
▁aux	-1181
▁dif	-1182
▁had	-1183
▁hal	-1184
▁may	-1185
▁num	-1186
▁off	-1187
▁opt	-1188
▁pre	-1189
▁tak	-1190
▁tit	-1191
▁typ	-1192
▁voc	-1193
▁wom	-1194
agram	-1195
akers	-1196
anics	-1197
arker	-1198
ether	-1199
glish	-1200
icine	-1201
inary	-1202
inear	-1203
inist	-1204
ision	-1205
istor	-1206
ormal	-1207
plain	-1208
ploma	-1209
sible	-1210
▁1911	-1211
▁1918	-1212
▁Each	-1213
▁Inst	-1214
▁King	-1215
▁List	-1216
▁Mean	-1217
▁Otto	-1218
▁Phil	-1219
▁Sing	-1220
▁Sony	-1221
▁TMRC	-1222
▁When	-1223
▁Word	-1224
▁axis	-1225
▁bioc	-1226
▁circ	-1227
▁comb	-1228
▁cook	-1229
▁cour	-1230
▁dict	-1231
▁gram	-1232
▁idea	-1233
▁mech	-1234
▁most	-1235
▁oper	-1236
▁over	-1237
▁pass	-1238
▁phys	-1239
▁pres	-1240
▁same	-1241
▁sign	-1242
▁soft	-1243
▁some	-1244
▁synt	-1245
▁text	-1246
▁when	-1247
▁work	-1248
▁writ	-1249
Huilli	-1250
cember	-1251
ection	-1252
exical	-1253
ferent	-1254
iliary	-1255
ionary	-1256
isting	-1257
lished	-1258
▁1919,	-1259
▁1996,	-1260
▁2010,	-1261
▁2011,	-1262
▁2022,	-1263
▁2023,	-1264
▁Apple	-1265
▁China	-1266
▁DisCo	-1267
▁Esper	-1268
▁James	-1269
▁Kawab	-1270
▁Korea	-1271
▁Laure	-1272
▁Metal	-1273
▁Micro	-1274
▁Music	-1275
▁about	-1276
▁allow	-1277
▁clock	-1278
▁domin	-1279
▁elect	-1280
▁entry	-1281
▁forms	-1282
▁gener	-1283
▁group	-1284
▁medal	-1285
▁multi	-1286
▁nomin	-1287
▁polar	-1288
▁quest	-1289
▁regul	-1290
▁scram	-1291
▁share	-1292
▁solve	-1293
▁table	-1294
▁terms	-1295
▁there	-1296
▁those	-1297
▁three	-1298
▁twice	-1299
ability	-1300
article	-1301
defined	-1302
emantic	-1303
essment	-1304
izabeth	-1305
portant	-1306
▁Module	-1307
▁Series	-1308
▁aspect	-1309
▁commun	-1310
▁create	-1311
▁direct	-1312
▁during	-1313
▁foobar	-1314
▁geomet	-1315
▁histor	-1316
▁matrix	-1317
▁notion	-1318
▁others	-1319
▁person	-1320
▁phrase	-1321
▁proble	-1322
▁second	-1323
▁spoken	-1324
Huillier	-1325
graduate	-1326
resented	-1327
riterion	-1328
▁Categor	-1329
▁English	-1330
▁Meaning	-1331
▁Modules	-1332
▁another	-1333
▁chemist	-1334
▁circuit	-1335
▁courses	-1336
▁critics	-1337
▁diagram	-1338
▁diploma	-1339
▁explain	-1340
▁include	-1341
▁individ	-1342
▁journal	-1343
▁medical	-1344
▁modules	-1345
▁paramet	-1346
▁release	-1347
▁respect	-1348
▁reviews	-1349
▁special	-1350
▁statist	-1351
▁various	-1352
ectionist	-1353
ification	-1354
▁Academic	-1355
▁American	-1356
▁December	-1357
▁Kawabata	-1358
▁Semantic	-1359
▁academic	-1360
▁building	-1361
▁collabor	-1362
▁criteria	-1363
▁describe	-1364
▁followed	-1365
▁gradient	-1366
▁interpre	-1367
▁networks	-1368
▁official	-1369
▁possible	-1370
▁reported	-1371
▁software	-1372
▁speakers	-1373
▁subjects	-1374
▁supports	-1375
▁switches	-1376
▁variable	-1377
▁Elizabeth	-1378
▁Esperanto	-1379
▁Laureates	-1380
▁Microsoft	-1381
▁auxiliary	-1382
▁different	-1383
▁following	-1384
▁functions	-1385
▁interface	-1386
▁mechanics	-1387
▁presented	-1388
▁reference	-1389
▁semantics	-1390
▁Technology	-1391
▁assessment	-1392
▁biological	-1393
▁coordinate	-1394
▁serialized	-1395
▁structures	-1396
▁throughout	-1397
▁Engineering	-1398
▁development	-1399
▁information	-1400
▁mathematics	-1401
▁nominations	-1402
▁recognition	-1403
▁theoretical	-1404
▁biochemistry	-1405
▁contributions	-1406
▁documentation	-1407
▁international	-1408
▁classification	-1409
.)	-1410
0)	-1411
00	-1412
0–	-1413
39	-1414
7.	-1415
73	-1416
78	-1417
8.	-1418
BM	-1419
FC	-1420
OP	-1421
PQ	-1422
RS	-1423
SD	-1424
Th	-1425
VA	-1426
af	-1427
ah	-1428
au	-1429
eb	-1430
ep	-1431
go	-1432
ja	-1433
ka	-1434
kł	-1435
lp	-1436
mb	-1437
ru	-1438
sc	-1439
sw	-1440
tr	-1441
ty	-1442
uc	-1443
ug	-1444
uo	-1445
uz	-1446
wo	-1447
▁-	-1448
▁4	-1449
▁5	-1450
▁6	-1451
▁z	-1452
%),	-1453
16,	-1454
3),	-1455
782	-1456
ACL	-1457
Cat	-1458
ISQ	-1459
RST	-1460
Sym	-1461
ada	-1462
air	-1463
ake	-1464
ang	-1465
anu	-1466
aom	-1467
arg	-1468
ask	-1469
atb	-1470
ath	-1471
aul	-1472
aus	-1473
bed	-1474
bra	-1475
bri	-1476
bur	-1477
cip	-1478
eep	-1479
elf	-1480
end	-1481
ero	-1482
gle	-1483
hel	-1484
iap	-1485
ica	-1486
ily	-1487
ink	-1488
iqu	-1489
ird	-1490
ise	-1491
ism	-1492
iti	-1493
key	-1494
ley	-1495
med	-1496
met	-1497
oad	-1498
och	-1499
oen	-1500
off	-1501
ohn	-1502
oms	-1503
org	-1504
orp	-1505
ors	-1506
osh	-1507
ove	-1508
ows	-1509
pag	-1510
pir	-1511
ral	-1512
ren	-1513
rop	-1514
ros	-1515
uce	-1516
uck	-1517
uhn	-1518
uni	-1519
urs	-1520
ury	-1521
ute	-1522
zym	-1523
▁(1	-1524
▁21	-1525
▁3,	-1526
▁Bi	-1527
▁Br	-1528
▁Cy	-1529
▁Di	-1530
▁Ed	-1531
▁Gu	-1532
▁On	-1533
▁Qu	-1534
▁Se	-1535
▁Sm	-1536
▁To	-1537
▁Up	-1538
▁ag	-1539
▁av	-1540
▁et	-1541
▁gu	-1542
▁id	-1543
▁if	-1544
▁mn	-1545
▁nn	-1546
▁pr	-1547
▁sk	-1548
▁sl	-1549
▁te	-1550
▁ut	-1551
0,0)	-1552
42).	-1553
abel	-1554
ably	-1555
abul	-1556
ails	-1557
amed	-1558
ampl	-1559
ange	-1560
anie	-1561
aomi	-1562
ared	-1563
aris	-1564
arri	-1565
arts	-1566
atic	-1567
ause	-1568
ayed	-1569
berg	-1570
bums	-1571
chit	-1572
clid	-1573
data	-1574
dges	-1575
ecut	-1576
eech	-1577
elev	-1578
erem	-1579
ergy	-1580
evin	-1581
ewis	-1582
ffic	-1583
fore	-1584
fred	-1585
gest	-1586
gory	-1587
hind	-1588
hing	-1589
holm	-1590
ials	-1591
icid	-1592
ings	-1593
inis	-1594
ised	-1595
isen	-1596
iven	-1597
kłod	-1598
lear	-1599
less	-1600
lete	-1601
ness	-1602
ocus	-1603
olid	-1604
omas	-1605
onet	-1606
oney	-1607
oper	-1608
ople	-1609
orld	-1610
oted	-1611
part	-1612
phia	-1613
pris	-1614
purp	-1615
ream	-1616
road	-1617
tain	-1618
text	-1619
that	-1620
tons	-1621
unta	-1622
uter	-1623
vent	-1624
yzed	-1625
▁(#1	-1626
▁22,	-1627
▁Acc	-1628
▁Aja	-1629
▁Ash	-1630
▁CSE	-1631
▁Cre	-1632
▁Ger	-1633
▁Hol	-1634
▁How	-1635
▁IBM	-1636
▁IOP	-1637
▁Int	-1638
▁Isl	-1639
▁Kan	-1640
▁Lat	-1641
▁Lim	-1642
▁Mat	-1643
▁Med	-1644
▁Mob	-1645
▁NLP	-1646
▁Non	-1647
▁OPQ	-1648
▁OVA	-1649
▁Pat	-1650
▁PyT	-1651
▁RFC	-1652
▁Sim	-1653
▁Six	-1654
▁Two	-1655
▁Wak	-1656
▁act	-1657
▁adm	-1658
▁age	-1659
▁amb	-1660
▁aud	-1661
▁aut	-1662
▁bar	-1663
▁bec	-1664
▁del	-1665
▁det	-1666
▁dig	-1667
▁duo	-1668
▁est	-1669
▁exp	-1670
▁fam	-1671
▁few	-1672
▁hen	-1673
▁job	-1674
▁loc	-1675
▁mag	-1676
▁man	-1677
▁mem	-1678
▁mov	-1679
▁neg	-1680
▁new	-1681
▁non	-1682
▁occ	-1683
▁old	-1684
▁own	-1685
▁pop	-1686
▁ran	-1687
▁ray	-1688
▁red	-1689
▁sem	-1690
▁sub	-1691
▁tri	-1692
▁van	-1693
▁wid	-1694
▁win	-1695
0,782	-1696
Curie	-1697
EMNLP	-1698
Sympt	-1699
ables	-1700
ached	-1701
aches	-1702
allel	-1703
apore	-1704
apped	-1705
aries	-1706
artes	-1707
astic	-1708
burgh	-1709
cided	-1710
cript	-1711
eland	-1712
entif	-1713
ently	-1714
erick	-1715
gebra	-1716
gener	-1717
hesis	-1718
iewed	-1719
imens	-1720
inese	-1721
ittee	-1722
itute	-1723
lying	-1724
oenig	-1725
ourth	-1726
owska	-1727
reaks	-1728
tempt	-1729
tered	-1730
ually	-1731
undam	-1732
unter	-1733
urpos	-1734
wards	-1735
▁1895	-1736
▁1896	-1737
▁1901	-1738
▁1914	-1739
▁1915	-1740
▁1921	-1741
▁1925	-1742
▁1943	-1743
▁1944	-1744
▁1950	-1745
▁1956	-1746
▁1995	-1747
▁2006	-1748
▁2023	-1749
▁Anth	-1750
▁Appl	-1751
▁Aust	-1752
▁Bard	-1753
▁Beau	-1754
▁Best	-1755
▁Bill	-1756
▁Cana	-1757
▁Cont	-1758
▁Corp	-1759
▁Dict	-1760
▁Evan	-1761
▁Face	-1762
▁Fred	-1763
▁Hoff	-1764
▁Hong	-1765
▁Jack	-1766
▁Janu	-1767
▁John	-1768
▁Kong	-1769
▁Kuhn	-1770
▁Last	-1771
▁Mann	-1772
▁Many	-1773
▁Meas	-1774
▁Most	-1775
▁Oper	-1776
▁Park	-1777
▁Past	-1778
▁Paul	-1779
▁Pine	-1780
▁Pull	-1781
▁Shoo	-1782
▁Suit	-1783
▁Suss	-1784
▁Tech	-1785
▁What	-1786
▁acqu	-1787
▁alth	-1788
▁answ	-1789
▁aver	-1790
▁axes	-1791
▁best	-1792
▁book	-1793
▁born	-1794
▁cate	-1795
▁clus	-1796
▁conn	-1797
▁cred	-1798
▁curr	-1799
▁deep	-1800
▁died	-1801
▁does	-1802
▁door	-1803
▁down	-1804
▁earl	-1805
▁edge	-1806
▁epis	-1807
▁evol	-1808
▁fact	-1809
▁flex	-1810
▁hack	-1811
▁half	-1812
▁high	-1813
▁host	-1814
▁issu	-1815
▁just	-1816
▁lead	-1817
▁less	-1818
▁list	-1819
▁load	-1820
▁long	-1821
▁made	-1822
▁make	-1823
▁mill	-1824
▁much	-1825
▁need	-1826
▁nine	-1827
▁node	-1828
▁none	-1829
▁port	-1830
▁prot	-1831
▁publ	-1832
▁read	-1833
▁requ	-1834
▁room	-1835
▁solo	-1836
▁sour	-1837
▁tagg	-1838
▁task	-1839
▁time	-1840
▁true	-1841
▁type	-1842
▁util	-1843
▁what	-1844
▁youn	-1845
▁zero	-1846
aching	-1847
amples	-1848
andard	-1849
arison	-1850
atable	-1851
cedent	-1852
cludes	-1853
ecture	-1854
emonic	-1855
entity	-1856
erical	-1857
ertain	-1858
ferred	-1859
iation	-1860
icides	-1861
idered	-1862
illiam	-1863
merged	-1864
ounced	-1865
phanie	-1866
priset	-1867
propag	-1868
roduct	-1869
ronics	-1870
spired	-1871
tation	-1872
▁1917,	-1873
▁1922,	-1874
▁1926,	-1875
▁1933,	-1876
▁1940–	-1877
▁2001,	-1878
▁2008,	-1879
▁2020,	-1880
▁2021,	-1881
▁After	-1882
▁Alice	-1883
▁Curie	-1884
▁Domin	-1885
▁Idiap	-1886
▁Kevin	-1887
▁Lewis	-1888
▁Maria	-1889
▁Marie	-1890
▁Naomi	-1891
▁Other	-1892
▁Point	-1893
▁Punta	-1894
▁Skłod	-1895
▁Solid	-1896
▁Spain	-1897
▁State	-1898
▁Stock	-1899
▁Under	-1900
▁adapt	-1901
▁along	-1902
▁anime	-1903
▁basis	-1904
▁began	-1905
▁cerem	-1906
▁could	-1907
▁dance	-1908
▁death	-1909
▁demon	-1910
▁divid	-1911
▁effic	-1912
▁eight	-1913
▁embed	-1914
▁emerg	-1915
▁estab	-1916
▁focus	-1917
▁found	-1918
▁gramm	-1919
▁guide	-1920
▁hence	-1921
▁image	-1922
▁input	-1923
▁known	-1924
▁later	-1925
▁liter	-1926
▁logic	-1927
▁makes	-1928
▁monet	-1929
▁optim	-1930
▁order	-1931
▁peace	-1932
▁plane	-1933
▁recip	-1934
▁serve	-1935
▁sever	-1936
▁shown	-1937
▁state	-1938
▁taken	-1939
▁techn	-1940
▁theme	-1941
▁these	-1942
▁think	-1943
▁token	-1944
▁while	-1945
▁whose	-1946
▁women	-1947
Swedish	-1948
abulary	-1949
asoning	-1950
atively	-1951
ception	-1952
cessary	-1953
classes	-1954
clidean	-1955
etition	-1956
hemical	-1957
lington	-1958
physics	-1959
pirical	-1960
plifies	-1961
purpose	-1962
urement	-1963
vidence	-1964
▁(1916,	-1965
▁Alfred	-1966
▁Associ	-1967
▁Atomic	-1968
▁Cartes	-1969
▁Direct	-1970
▁Formal	-1971
▁German	-1972
▁Gundam	-1973
▁Holman	-1974
▁Island	-1975
▁Kaname	-1976
▁Koenig	-1977
▁Mobile	-1978
▁OPQRST	-1979
▁Record	-1980
▁Scient	-1981
▁Thomas	-1982
▁Wakely	-1983
▁Walker	-1984
▁Wilson	-1985
▁accomp	-1986
▁archit	-1987
▁associ	-1988
▁behind	-1989
▁breaks	-1990
▁button	-1991
▁choice	-1992
▁combin	-1993
▁conven	-1994
▁creole	-1995
▁enough	-1996
▁execut	-1997
▁fourth	-1998
▁itself	-1999
▁linear	-2000
▁marker	-2001
▁native	-2002
▁nature	-2003
▁people	-2004
▁period	-2005
▁places	-2006
▁player	-2007
▁primes	-2008
▁rating	-2009
▁resear	-2010
▁result	-2011
▁states	-2012
▁string	-2013
▁titled	-2014
▁topics	-2015
▁varied	-2016
▁weight	-2017
▁widely	-2018
Symptoms	-2019
adelphia	-2020
computer	-2021
ications	-2022
isenberg	-2023
iversary	-2024
izations	-2025
ocations	-2026
ochastic	-2027
ometimes	-2028
standard	-2029
▁150,782	-2030
▁America	-2031
▁Another	-2032
▁Applied	-2033
▁Bardeen	-2034
▁Bridges	-2035
▁Chinese	-2036
▁However	-2037
▁January	-2038
▁Lexical	-2039
▁Limited	-2040
▁Patrick	-2041
▁Process	-2042
▁Pullman	-2043
▁PyTorch	-2044
▁Quantum	-2045
▁Sussman	-2046
▁William	-2047
▁algebra	-2048
▁appears	-2049
▁aspects	-2050
▁attempt	-2051
▁average	-2052
▁biology	-2053
▁buttons	-2054
▁contain	-2055
▁context	-2056
▁cooking	-2057
▁counted	-2058
▁counter	-2059
▁country	-2060
▁decided	-2061
▁delayed	-2062
▁digital	-2063
▁edition	-2064
▁episode	-2065
▁follows	-2066
▁forward	-2067
▁general	-2068
▁hosting	-2069
▁located	-2070
▁million	-2071
▁modular	-2072
▁multipl	-2073
▁objects	-2074
▁opening	-2075
▁outside	-2076
▁passing	-2077
▁problem	-2078
▁reached	-2079
▁receive	-2080
▁similar	-2081
▁toolkit	-2082
▁usually	-2083
▁vectors	-2084
▁written	-2085
elevision	-2086
iniseries	-2087
inistered	-2088
▁DisCoCat	-2089
▁Facebook	-2090
▁Internet	-2091
▁Linguist	-2092
▁Particle	-2093
▁although	-2094
▁analyzed	-2095
▁annually	-2096
▁backward	-2097
▁ceremony	-2098
▁circuits	-2099
▁commonly	-2100
▁demonstr	-2101
▁diagrams	-2102
▁dictated	-2103
▁excludes	-2104
▁geometry	-2105
▁includes	-2106
▁journals	-2107
▁meanings	-2108
▁medicine	-2109
▁mnemonic	-2110
▁monetary	-2111
▁negative	-2112
▁receives	-2113
▁referred	-2114
▁teaching	-2115
▁theories	-2116
▁userdata	-2117
▁youngest	-2118
▁Cartesian	-2119
▁Committee	-2120
▁Dominican	-2121
▁Ellington	-2122
▁Euclidean	-2123
▁Frederick	-2124
▁Institute	-2125
▁Molecular	-2126
▁Singapore	-2127
▁Stephanie	-2128
▁Stockholm	-2129
▁announced	-2130
▁clustered	-2131
▁criterion	-2132
▁describes	-2133
▁developed	-2134
▁dominated	-2135
▁efficient	-2136
▁important	-2137
▁intersect	-2138
▁introduct	-2139
▁metatable	-2140
▁molecular	-2141
▁necessary	-2142
▁numerical	-2143
▁organized	-2144
▁precedent	-2145
▁prescript	-2146
▁published	-2147
▁questions	-2148
▁reasoning	-2149
▁recipient	-2150
▁relations	-2151
▁something	-2152
▁sometimes	-2153
▁synthesis	-2154
▁translate	-2155
▁variables	-2156
▁Artificial	-2157
▁Controlled	-2158
▁Dictionary	-2159
▁Skłodowska	-2160
▁approaches	-2161
▁associated	-2162
▁backpropag	-2163
▁considered	-2164
▁consisting	-2165
▁discipline	-2166
▁historical	-2167
▁literature	-2168
▁operations	-2169
▁parameters	-2170
▁scientists	-2171
▁vocabulary	-2172
▁Association	-2173
▁Linguistics	-2174
▁Measurement	-2175
▁Nobelpriset	-2176
▁anniversary	-2177
▁composition	-2178
▁computation	-2179
▁conferences	-2180
▁established	-2181
▁individuals	-2182
▁organically	-2183
▁outstanding	-2184
▁statistical	-2185
▁Philadelphia	-2186
▁administered	-2187
▁applications	-2188
▁architecture	-2189
▁respectively	-2190
▁Computational	-2191
▁International	-2192
▁collaboration	-2193
▁communication	-2194
▁connectionist	-2195
▁Categorization	-2196
▁interpretation	-2197
▁multiplication	-2198
▁differentiation	-2199
CM	-2200
TP	-2201
To	-2202
ej	-2203
gb	-2204
sh	-2205
▁嘉	-2206
004	-2207
7.4	-2208
80.	-2209
ASE	-2210
CLR	-2211
CML	-2212
CSE	-2213
EPL	-2214
JIT	-2215
MIS	-2216
RAM	-2217
SEC	-2218
WSD	-2219
ahn	-2220
asy	-2221
aue	-2222
awr	-2223
bar	-2224
dri	-2225
eju	-2226
haw	-2227
hou	-2228
iki	-2229
ire	-2230
itz	-2231
mus	-2232
reg	-2233
rel	-2234
rev	-2235
she	-2236
tra	-2237
urt	-2238
who	-2239
yll	-2240
yzz	-2241
▁16	-2242
▁30	-2243
▁35	-2244
▁5,	-2245
▁68	-2246
▁69	-2247
▁AM	-2248
▁Ab	-2249
▁Am	-2250
▁BQ	-2251
▁Ce	-2252
▁FQ	-2253
▁FU	-2254
▁ba	-2255
▁fl	-2256
▁iO	-2257
▁ip	-2258
▁le	-2259
▁ov	-2260
▁嘉邦	-2261
03),	-2262
2,73	-2263
20),	-2264
2000	-2265
39),	-2266
7.4/	-2267
AACL	-2268
EMIS	-2269
HASE	-2270
Juni	-2271
NISQ	-2272
Shaw	-2273
TMRC	-2274
Thir	-2275
This	-2276
WVLC	-2277
Wind	-2278
Witt	-2279
acob	-2280
ades	-2281
ague	-2282
aile	-2283
airy	-2284
aise	-2285
allo	-2286
alph	-2287
aphy	-2288
arah	-2289
arkl	-2290
ashi	-2291
asir	-2292
asis	-2293
atti	-2294
atus	-2295
awai	-2296
axis	-2297
brid	-2298
chin	-2299
19)	-2300
alm	-2301
val	-2302
▁4-	-2303
▁Ow	-2304
▁wr	-2305
-19)	-2306
Took	-2307
alar	-2308
assN	-2309
cogr	-2310
conn	-2311
cuss	-2312
duce	-2313
efit	-2314
eitz	-2315
enho	-2316
ertz	-2317
etts	-2318
even	-2319
eves	-2320
fuck	-2321
gins	-2322
greg	-2323
heat	-2324
helm	-2325
hode	-2326
hood	-2327
host	-2328
ians	-2329
inal	-2330
ique	-2331
isco	-2332
ites	-2333
itts	-2334
lect	-2335
lerg	-2336
medi	-2337
mond	-2338
neat	-2339
oeck	-2340
oing	-2341
okey	-2342
onna	-2343
otyp	-2344
ould	-2345
outh	-2346
plac	-2347
pond	-2348
pons	-2349
rask	-2350
rast	-2351
riev	-2352
rope	-2353
ropy	-2354
ross	-2355
scru	-2356
tail	-2357
tair	-2358
time	-2359
ugal	-2360
uros	-2361
ursu	-2362
uzur	-2363
ways	-2364
when	-2365
ynam	-2366
yond	-2367
yzzy	-2368
zyme	-2369
▁100	-2370
▁17,	-2371
▁ACL	-2372
▁Aug	-2373
▁BQP	-2374
▁Bac	-2375
▁Bef	-2376
▁Cyc	-2377
▁Don	-2378
▁FQF	-2379
▁FTP	-2380
▁Fie	-2381
▁Ghe	-2382
▁Glo	-2383
▁Gol	-2384
▁HLT	-2385
▁Iru	-2386
▁Kid	-2387
▁Laf	-2388
▁Leb	-2389
▁New	-2390
▁Now	-2391
▁One	-2392
▁Our	-2393
▁Out	-2394
▁Qat	-2395
▁San	-2396
▁Suz	-2397
▁Syn	-2398
▁Tom	-2399
9.	-2400
Py	-2401
5).	-2402
Mar	-2403
als	-2404
alv	-2405
enm	-2406
erv	-2407
iax	-2408
isb	-2409
isy	-2410
its	-2411
lan	-2412
lap	-2413
olf	-2414
opp	-2415
row	-2416
▁PV	-2417
▁Pe	-2418
9%),	-2419
atis	-2420
elon	-2421
esir	-2422
ices	-2423
iegb	-2424
ills	-2425
inda	-2426
laps	-2427
mine	-2428
ners	-2429
oler	-2430
ored	-2431
ovel	-2432
tern	-2433
▁49.	-2434
▁Mov	-2435
▁Typ	-2436
▁Van	-2437
▁Ver	-2438
▁Vis	-2439
▁Wik	-2440
▁Zam	-2441
▁Zen	-2442
▁baz	-2443
▁ben	-2444
▁bro	-2445
▁den	-2446
▁did	-2447
▁eit	-2448
▁fas	-2449
▁fav	-2450
▁fri	-2451
▁gre	-2452
▁hav	-2453
▁inv	-2454
▁ips	-2455
▁lab	-2456
▁mam	-2457
▁max	-2458
▁min	-2459
▁mus	-2460
▁obl	-2461
▁oph	-2462
▁rem	-2463
▁rob	-2464
▁sac	-2465
▁she	-2466
▁sum	-2467
▁tod	-2468
▁tur	-2469
▁way	-2470
7.4/1	-2471
Dance	-2472
EMIST	-2473
Maria	-2474
NAACL	-2475
Prize	-2476
Touch	-2477
Windy	-2478
Wings	-2479
abelN	-2480
acter	-2481
aggle	-2482
aight	-2483
aints	-2484
alvin	-2485
ambri	-2486
anada	-2487
andai	-2488
anied	-2489
appin	-2490
arget	-2491
argon	-2492
arily	-2493
arkla	-2494
arles	-2495
arlie	-2496
arter	-2497
ashim	-2498
asynt	-2499
ID	-2500
mp	-2501
5.3	-2502
Mer	-2503
VID	-2504
atr	-2505
cou	-2506
era	-2507
for	-2508
ier	-2509
oes	-2510
sig	-2511
ste	-2512
ulu	-2513
▁25	-2514
▁7,	-2515
▁Sy	-2516
▁fa	-2517
5.3%	-2518
List	-2519
OVID	-2520
ases	-2521
igns	-2522
lymp	-2523
ower	-2524
▁Act	-2525
▁Add	-2526
▁SEE	-2527
▁Syd	-2528
▁aff	-2529
▁cit	-2530
▁der	-2531
▁sin	-2532
Merry	-2533
agmat	-2534
anger	-2535
appor	-2536
atbot	-2537
atisf	-2538
atoes	-2539
atown	-2540
attle	-2541
bridg	-2542
celon	-2543
chron	-2544
cious	-2545
creas	-2546
dings	-2547
eason	-2548
edfor	-2549
ended	-2550
enric	-2551
enzym	-2552
eriod	-2553
erner	-2554
ertin	-2555
esign	-2556
evesy	-2557
fully	-2558
gress	-2559
gular	-2560
helor	-2561
human	-2562
iatus	-2563
iaxis	-2564
icing	-2565
icond	-2566
icorn	-2567
ience	-2568
igned	-2569
ikuni	-2570
inste	-2571
iques	-2572
isbon	-2573
itian	-2574
ivism	-2575
junct	-2576
lands	-2577
mails	-2578
mondy	-2579
obert	-2580
oecke	-2581
ogics	-2582
olkit	-2583
olulu	-2584
oning	-2585
onnie	-2586
oover	-2587
opped	-2588
oring	-2589
orksh	-2590
orout	-2591
oshua	-2592
ottom	-2593
ounds	-2594
ousaf	-2595
ousew	-2596
overn	-2597
pisod	-2598
plays	-2599
-3	-2600
23	-2601
77	-2602
86	-2603
96	-2604
AT	-2605
ET	-2606
LA	-2607
dy	-2608
-38	-2609
38)	-2610
86%	-2611
BLA	-2612
DAT	-2613
cat	-2614
enc	-2615
osp	-2616
rem	-2617
▁96	-2618
23).	-2619
BLAS	-2620
GDAT	-2621
ator	-2622
emar	-2623
ency	-2624
iest	-2625
inus	-2626
isqu	-2627
oddy	-2628
▁350	-2629
▁86%	-2630
▁Rel	-2631
▁imm	-2632
▁mlp	-2633
IGDAT	-2634
armus	-2635
erosp	-2636
ppert	-2637
prove	-2638
quent	-2639
ratic	-2640
rench	-2641
ricon	-2642
rigin	-2643
ronic	-2644
ronym	-2645
scale	-2646
sheet	-2647
thalm	-2648
third	-2649
train	-2650
triev	-2651
uctor	-2652
uence	-2653
unker	-2654
until	-2655
usion	-2656
ussel	-2657
ustry	-2658
ution	-2659
vents	-2660
weitz	-2661
çaise	-2662
▁(10.	-2663
▁(196	-2664
▁(201	-2665
▁1639	-2666
▁1930	-2667
▁1932	-2668
▁1938	-2669
▁1958	-2670
▁1959	-2671
▁1972	-2672
▁1979	-2673
▁2008	-2674
▁5.3%	-2675
▁7,73	-2676
▁Adam	-2677
▁Andy	-2678
▁Anne	-2679
▁Arth	-2680
▁Batt	-2681
▁Bird	-2682
▁Camp	-2683
▁Chin	-2684
▁Club	-2685
▁Conr	-2686
▁Crow	-2687
▁Curt	-2688
▁Denm	-2689
▁Disc	-2690
▁Emir	-2691
▁Emul	-2692
▁Figu	-2693
▁File	-2694
▁Fort	-2695
▁Full	-2696
▁Ghez	-2697
▁Gold	-2698
▁Gran	-2699
FL	-2700
JC	-2701
fl	-2702
gi	-2703
ll	-2704
of	-2705
IJC	-2706
PFL	-2707
adm	-2708
ena	-2709
lob	-2710
yle	-2711
▁II	-2712
▁Su	-2713
▁bo	-2714
adme	-2715
akah	-2716
ambe	-2717
elgi	-2718
lobe	-2719
orem	-2720
test	-2721
vide	-2722
ysik	-2723
▁Ill	-2724
▁WSD	-2725
▁far	-2726
▁fem	-2727
▁fit	-2728
▁mar	-2729
actic	-2730
ambeq	-2731
ayful	-2732
ilies	-2733
olish	-2734
▁1920	-2735
▁Cond	-2736
▁EPFL	-2737
▁Gust	-2738
▁Hahn	-2739
▁Hein	-2740
▁ICLR	-2741
▁ICML	-2742
▁Idol	-2743
▁Jeju	-2744
▁Kana	-2745
▁Karl	-2746
▁Kids	-2747
▁Laue	-2748
▁Lawr	-2749
▁Lead	-2750
▁Lena	-2751
▁Loss	-2752
▁Love	-2753
▁LuaR	-2754
▁MSEC	-2755
▁Main	-2756
▁Miki	-2757
▁Mult	-2758
▁NISQ	-2759
▁Nern	-2760
▁Next	-2761
▁Null	-2762
▁Only	-2763
▁Open	-2764
▁Oral	-2765
▁Over	-2766
▁Owen	-2767
▁Phot	-2768
▁Plan	-2769
▁Port	-2770
▁Prem	-2771
▁Publ	-2772
▁QNLP	-2773
▁QRAM	-2774
▁REPL	-2775
▁Rail	-2776
▁SEED	-2777
▁Serv	-2778
▁Shar	-2779
▁Supp	-2780
▁Task	-2781
▁Text	-2782
▁Tree	-2783
▁Upon	-2784
▁Very	-2785
▁Vide	-2786
▁Wash	-2787
▁Wikt	-2788
▁Yand	-2789
▁Yosh	-2790
▁Your	-2791
▁Zeng	-2792
▁audi	-2793
▁buil	-2794
▁cann	-2795
▁capt	-2796
▁care	-2797
▁catb	-2798
▁chie	-2799
29	-2800
Db	-2801
ip	-2802
yu	-2803
ém	-2804
MDb	-2805
The	-2806
Vir	-2807
enh	-2808
hip	-2809
ida	-2810
kin	-2811
ror	-2812
▁fu	-2813
Virt	-2814
anyu	-2815
arge	-2816
bert	-2817
ects	-2818
izer	-2819
izes	-2820
spos	-2821
émie	-2822
▁(14	-2823
▁229	-2824
▁Ros	-2825
▁ing	-2826
▁key	-2827
▁our	-2828
ality	-2829
ction	-2830
enhag	-2831
error	-2832
idgin	-2833
ified	-2834
itary	-2835
iving	-2836
lpful	-2837
orage	-2838
orida	-2839
ption	-2840
▁Ball	-2841
▁BarC	-2842
▁IMDb	-2843
▁Pars	-2844
▁cast	-2845
▁code	-2846
▁dram	-2847
▁educ	-2848
▁emer	-2849
▁emph	-2850
▁eval	-2851
▁even	-2852
▁feat	-2853
▁full	-2854
▁halv	-2855
▁herb	-2856
▁here	-2857
▁infl	-2858
▁iter	-2859
▁jade	-2860
▁keep	-2861
▁kind	-2862
▁loss	-2863
▁luck	-2864
▁main	-2865
▁mane	-2866
▁mark	-2867
▁nons	-2868
▁onto	-2869
▁pair	-2870
▁pars	-2871
▁part	-2872
▁peer	-2873
▁perf	-2874
▁phil	-2875
▁pick	-2876
▁post	-2877
▁rout	-2878
▁sets	-2879
▁subs	-2880
▁tale	-2881
▁then	-2882
▁thus	-2883
▁unim	-2884
▁unsh	-2885
▁upon	-2886
▁ways	-2887
▁wild	-2888
0,0,0)	-2889
1942).	-2890
2,738,	-2891
EMISTR	-2892
IJCNLP	-2893
Junior	-2894
Period	-2895
SIGDAT	-2896
Shawty	-2897
acehol	-2898
acobus	-2899
3)	-2900
WS	-2901
ha	-2902
ii	-2903
tg	-2904
uh	-2905
▁/	-2906
bit	-2907
but	-2908
dom	-2909
ntg	-2910
oha	-2911
sty	-2912
▁Ge	-2913
akuh	-2914
atab	-2915
bitr	-2916
erek	-2917
ione	-2918
line	-2919
name	-2920
öntg	-2921
▁25.	-2922
▁Abu	-2923
▁Kin	-2924
▁Nuc	-2925
▁Opt	-2926
▁Tog	-2927
▁fur	-2928
▁sur	-2929
▁tog	-2930
cover	-2931
enstr	-2932
orean	-2933
reely	-2934
▁2021	-2935
▁Doha	-2936
▁Geor	-2937
▁KinK	-2938
▁Thus	-2939
▁asyn	-2940
▁meas	-2941
▁plan	-2942
▁prob	-2943
▁rest	-2944
FOOBAR	-2945
actors	-2946
alents	-2947
ambigu	-2948
ambrid	-2949
apporo	-2950
arried	-2951
arriet	-2952
asting	-2953
atbots	-2954
atform	-2955
atrain	-2956
button	-2957
change	-2958
couver	-2959
cussed	-2960
dimens	-2961
driven	-2962
ecause	-2963
ensmal	-2964
entury	-2965
erials	-2966
ermine	-2967
foobar	-2968
formed	-2969
fucked	-2970
ibrary	-2971
icinal	-2972
icists	-2973
ieland	-2974
ifying	-2975
ighter	-2976
iguity	-2977
ilayer	-2978
iments	-2979
imilar	-2980
ington	-2981
inning	-2982
itious	-2983
lative	-2984
lexity	-2985
lingua	-2986
lorida	-2987
lympic	-2988
matrix	-2989
mentii	-2990
merger	-2991
native	-2992
olades	-2993
omatic	-2994
onique	-2995
onomic	-2996
oordin	-2997
orient	-2998
osites	-2999
";	-3000
1.	-3001
堂珍	-3002
Her	-3003
alk	-3004
ted	-3005
▁Io	-3006
atch	-3007
igur	-3008
lege	-3009
qual	-3010
uten	-3011
▁Hab	-3012
▁War	-3013
▁adv	-3014
▁cod	-3015
▁tra	-3016
Mayer	-3017
aring	-3018
metry	-3019
odore	-3020
ogous	-3021
ories	-3022
patch	-3023
stalk	-3024
urist	-3025
▁1965	-3026
▁Anal	-3027
▁Edin	-3028
▁Ioan	-3029
▁Some	-3030
▁case	-3031
▁give	-3032
▁init	-3033
▁libr	-3034
▁quux	-3035
oughts	-3036
ousafz	-3037
output	-3038
person	-3039
placed	-3040
quared	-3041
ricted	-3042
rising	-3043
roader	-3044
series	-3045
speech	-3046
stract	-3047
styled	-3048
tained	-3049
tended	-3050
tested	-3051
trains	-3052
umably	-3053
uments	-3054
urosci	-3055
urring	-3056
usetts	-3057
ussels	-3058
vector	-3059
▁(#13)	-3060
▁(0,0)	-3061
▁(1977	-3062
▁(2018	-3063
▁1896.	-3064
▁1901,	-3065
▁1903,	-3066
▁1911.	-3067
▁1924,	-3068
▁1925,	-3069
▁1928,	-3070
▁1931,	-3071
▁1934,	-3072
▁1944,	-3073
▁1944.	-3074
▁1954,	-3075
▁1960.	-3076
▁1972,	-3077
▁1972.	-3078
▁1978.	-3079
▁1980.	-3080
▁1997,	-3081
▁1998,	-3082
▁1999,	-3083
▁2000,	-3084
▁2003,	-3085
▁2004,	-3086
▁2005,	-3087
▁2007,	-3088
▁2009,	-3089
▁2011.	-3090
▁2014,	-3091
▁2015,	-3092
▁2017,	-3093
▁2017.	-3094
▁2018)	-3095
▁2018,	-3096
▁2018.	-3097
▁2019,	-3098
▁2023.	-3099
,"	-3100
.'	-3101
▁#	-3102
▁§	-3103
ala	-3104
aly	-3105
ino	-3106
int	-3107
iny	-3108
lus	-3109
▁#2	-3110
▁14	-3111
▁ir	-3112
ager	-3113
chie	-3114
cons	-3115
inom	-3116
ires	-3117
lush	-3118
ober	-3119
rich	-3120
tens	-3121
▁28,	-3122
▁Nor	-3123
▁cof	-3124
▁lif	-3125
▁mom	-3126
▁ord	-3127
alala	-3128
chiev	-3129
ching	-3130
ename	-3131
ional	-3132
onent	-3133
toler	-3134
voice	-3135
▁Arab	-3136
▁Daly	-3137
▁Marc	-3138
▁Mass	-3139
▁Rain	-3140
▁irre	-3141
▁life	-3142
▁rank	-3143
▁stem	-3144
▁went	-3145
abeled	-3146
ampion	-3147
ctober	-3148
emarie	-3149
ention	-3150
estiny	-3151
iflush	-3152
▁1915.	-3153
▁1929,	-3154
▁2024,	-3155
▁2025,	-3156
▁7.4/1	-3157
▁AMPLE	-3158
▁Adina	-3159
▁Adolf	-3160
▁Album	-3161
▁Amand	-3162
▁Andro	-3163
▁Barry	-3164
▁Being	-3165
▁Belgi	-3166
▁Bragg	-3167
▁Buten	-3168
▁COVID	-3169
▁Clark	-3170
▁Colum	-3171
▁Cyber	-3172
▁Derek	-3173
▁Donna	-3174
▁Dream	-3175
▁Elect	-3176
▁Enter	-3177
▁Evans	-3178
▁FUBAR	-3179
▁Franc	-3180
▁Frask	-3181
▁Given	-3182
▁Globe	-3183
▁Group	-3184
▁Guest	-3185
▁Guild	-3186
▁Haber	-3187
▁Haiti	-3188
▁Hanyu	-3189
▁Hawai	-3190
▁Hertz	-3191
▁Intel	-3192
▁Ioann	-3193
▁Kanaz	-3194
▁Large	-3195
▁Linda	-3196
▁Linus	-3197
▁Loper	-3198
▁Lorem	-3199
BC	-3200
Gr	-3201
ami	-3202
▁2,	-3203
▁CH	-3204
▁Cz	-3205
▁Me	-3206
▁Mi	-3207
ands	-3208
andt	-3209
gure	-3210
inet	-3211
orce	-3212
ring	-3213
urce	-3214
▁ABC	-3215
▁Cit	-3216
▁Tan	-3217
▁ice	-3218
▁let	-3219
apter	-3220
atics	-3221
crete	-3222
ement	-3223
imate	-3224
onics	-3225
ossal	-3226
owers	-3227
▁Tanh	-3228
▁etym	-3229
▁syll	-3230
▁unif	-3231
source	-3232
▁1939,	-3233
▁Cycle	-3234
▁Czech	-3235
▁First	-3236
▁Force	-3237
▁Instr	-3238
▁Logic	-3239
▁Madel	-3240
▁Makuh	-3241
▁Manne	-3242
▁Marth	-3243
▁Mason	-3244
▁Mater	-3245
▁Metac	-3246
▁Miami	-3247
▁Model	-3248
▁Named	-3249
▁Night	-3250
▁North	-3251
▁Novak	-3252
▁Pitts	-3253
▁Price	-3254
▁Prote	-3255
▁Qatar	-3256
▁Rainn	-3257
▁Ralph	-3258
▁Rhode	-3259
▁Röntg	-3260
▁Sarah	-3261
▁Short	-3262
▁Siegb	-3263
▁Simpl	-3264
▁Smith	-3265
▁Soddy	-3266
▁South	-3267
▁Stern	-3268
▁Steve	-3269
▁Sydne	-3270
▁Takah	-3271
▁While	-3272
▁Whist	-3273
▁Words	-3274
▁World	-3275
▁Yasir	-3276
▁Yuzur	-3277
▁activ	-3278
▁added	-3279
▁adult	-3280
▁adver	-3281
▁after	-3282
▁agent	-3283
▁album	-3284
▁alert	-3285
▁areas	-3286
▁assum	-3287
▁avion	-3288
▁bless	-3289
▁board	-3290
▁built	-3291
▁chant	-3292
▁cheat	-3293
▁chief	-3294
▁cited	-3295
▁comic	-3296
▁cross	-3297
▁datab	-3298
▁deals	-3299
▁.	-3300
川畑	-3301
apl	-3302
bia	-3303
cil	-3304
emi	-3305
imi	-3306
ize	-3307
ods	-3308
▁Dō	-3309
▁If	-3310
Kimi	-3311
arry	-3312
inch	-3313
inci	-3314
iron	-3315
ocks	-3316
oods	-3317
▁Big	-3318
▁ado	-3319
▁cap	-3320
▁div	-3321
▁dog	-3322
▁fun	-3323
▁mil	-3324
ailey	-3325
ensed	-3326
ieces	-3327
viron	-3328
ybrid	-3329
▁Biop	-3330
▁Dist	-3331
▁Fant	-3332
▁Lapl	-3333
▁News	-3334
▁Zsig	-3335
▁hard	-3336
▁inst	-3337
▁kemi	-3338
▁live	-3339
▁memb	-3340
▁sell	-3341
Hybrid	-3342
Pieces	-3343
iology	-3344
scruff	-3345
▁Award	-3346
▁Cecil	-3347
▁Exper	-3348
▁Harry	-3349
▁Theor	-3350
▁Woods	-3351
▁angle	-3352
▁avail	-3353
▁decad	-3354
▁depen	-3355
▁deriv	-3356
▁displ	-3357
▁drama	-3358
▁ended	-3359
▁equal	-3360
▁error	-3361
▁exact	-3362
▁extra	-3363
▁fairy	-3364
▁fault	-3365
▁figur	-3366
▁fired	-3367
▁fluct	-3368
▁fysik	-3369
▁going	-3370
▁highl	-3371
▁honey	-3372
▁incre	-3373
▁index	-3374
▁indic	-3375
▁inher	-3376
▁ipsum	-3377
▁kinet	-3378
▁least	-3379
▁magic	-3380
▁money	-3381
▁moved	-3382
▁music	-3383
▁names	-3384
▁needs	-3385
▁noisy	-3386
▁novel	-3387
▁oblig	-3388
▁occur	-3389
▁offer	-3390
▁overs	-3391
▁padme	-3392
▁parad	-3393
▁parts	-3394
▁pinch	-3395
▁plays	-3396
▁power	-3397
▁print	-3398
▁pursu	-3399
aC	-3400
7).	-3401
Let	-3402
aCy	-3403
ets	-3404
hab	-3405
ims	-3406
uma	-3407
▁("	-3408
▁Fo	-3409
▁Fu	-3410
erbs	-3411
good	-3412
habi	-3413
idis	-3414
imat	-3415
imel	-3416
umed	-3417
▁Bob	-3418
▁Bro	-3419
▁Fut	-3420
▁Lee	-3421
▁Rad	-3422
▁aid	-3423
▁dot	-3424
▁hot	-3425
▁hum	-3426
▁imp	-3427
entum	-3428
otics	-3429
ranch	-3430
rical	-3431
▁17).	-3432
▁aims	-3433
▁bees	-3434
▁flow	-3435
▁sine	-3436
▁stre	-3437
ground	-3438
itions	-3439
netics	-3440
▁Dhabi	-3441
▁SpaCy	-3442
▁Timel	-3443
▁audio	-3444
▁flows	-3445
▁range	-3446
▁reads	-3447
▁resiz	-3448
▁score	-3449
▁secur	-3450
▁sense	-3451
▁short	-3452
▁signs	-3453
▁simul	-3454
▁since	-3455
▁slang	-3456
▁speed	-3457
▁stars	-3458
▁start	-3459
▁style	-3460
▁super	-3461
▁thing	-3462
▁title	-3463
▁today	-3464
▁trial	-3465
▁tried	-3466
▁unres	-3467
▁until	-3468
▁usage	-3469
▁verbs	-3470
▁vital	-3471
▁vocal	-3472
▁whale	-3473
▁whate	-3474
▁woman	-3475
▁world	-3476
▁would	-3477
▁write	-3478
▁xyzzy	-3479
32,738,	-3480
History	-3481
Tookage	-3482
Virtual	-3483
abelNET	-3484
aginary	-3485
alities	-3486
aracter	-3487
arallel	-3488
aryland	-3489
bitrary	-3490
cadémie	-3491
ceptron	-3492
chemist	-3493
cording	-3494
curring	-3495
duction	-3496
efiting	-3497
elected	-3498
enhagen	-3499
▁要	-3500
ora	-3501
xed	-3502
▁WS	-3503
Comp	-3504
QNLP	-3505
ayan	-3506
cher	-3507
ifle	-3508
igms	-3509
jury	-3510
osen	-3511
ties	-3512
▁Foe	-3513
▁Goe	-3514
▁Goo	-3515
▁Hal	-3516
▁Him	-3517
▁Hon	-3518
▁Ice	-3519
▁Num	-3520
▁Tex	-3521
▁Web	-3522
▁bio	-3523
▁suc	-3524
assNL	-3525
aying	-3526
ights	-3527
oinor	-3528
order	-3529
orial	-3530
▁1927	-3531
▁1970	-3532
▁2014	-3533
▁2018	-3534
▁Bart	-3535
▁Brit	-3536
▁Sour	-3537
▁Tate	-3538
▁area	-3539
▁dial	-3540
▁ease	-3541
▁ever	-3542
▁late	-3543
▁purp	-3544
▁star	-3545
▁tech	-3546
ording	-3547
verend	-3548
ynamic	-3549
▁Halse	-3550
▁Texas	-3551
▁clear	-3552
▁fixed	-3553
EMISTRY	-3554
assNLLC	-3555
enricus	-3556
entropy	-3557
enzymes	-3558
fulness	-3559
gorical	-3560
hysical	-3561
ializes	-3562
imately	-3563
inciple	-3564
inction	-3565
inomial	-3566
instein	-3567
isition	-3568
istling	-3569
lergies	-3570
matical	-3571
mediate	-3572
natural	-3573
ologist	-3574
orkshop	-3575
ortedly	-3576
otyping	-3577
perties	-3578
pisodes	-3579
plified	-3580
ponders	-3581
ponsive	-3582
program	-3583
reaming	-3584
redient	-3585
related	-3586
renamed	-3587
ressive	-3588
ributes	-3589
ripting	-3590
ription	-3591
riteria	-3592
scruffy	-3593
similar	-3594
sposing	-3595
tension	-3596
trieval	-3597
urposed	-3598
urposes	-3599
Fee	-3600
Foo	-3601
awa	-3602
cay	-3603
ray	-3604
ude	-3605
▁6,	-3606
▁Gr	-3607
bial	-3608
ritz	-3609
very	-3610
▁Get	-3611
▁Gro	-3612
▁day	-3613
▁hit	-3614
▁iOS	-3615
▁von	-3616
itude	-3617
omain	-3618
ralia	-3619
ritic	-3620
▁2016	-3621
▁2020	-3622
▁Back	-3623
▁Bean	-3624
▁Bory	-3625
▁Cast	-3626
▁Hand	-3627
▁cell	-3628
▁clos	-3629
▁quad	-3630
▁real	-3631
▁vary	-3632
▁vers	-3633
▁view	-3634
celona	-3635
ensely	-3636
orable	-3637
▁1914,	-3638
▁1945.	-3639
▁1978)	-3640
▁2025.	-3641
▁Avery	-3642
▁Fritz	-3643
▁Gates	-3644
▁Graph	-3645
▁KinKi	-3646
▁array	-3647
▁cover	-3648
▁decay	-3649
▁means	-3650
bridged	-3651
uations	-3652
vention	-3653
venture	-3654
winning	-3655
▁(#15).	-3656
▁(14%),	-3657
▁(1938)	-3658
▁1896),	-3659
▁1911).	-3660
▁1962).	-3661
▁1979).	-3662
▁7,731,	-3663
▁Achiev	-3664
▁Albert	-3665
▁Albums	-3666
▁Altair	-3667
▁Amanda	-3668
▁Andrea	-3669
▁Applic	-3670
▁Arthur	-3671
▁Asayan	-3672
▁Ashkin	-3673
▁Ashley	-3674
▁August	-3675
▁Austin	-3676
▁Awards	-3677
▁Bailey	-3678
▁Bandai	-3679
▁Barkla	-3680
▁Before	-3681
▁Bonnie	-3682
▁Calvin	-3683
▁Canada	-3684
▁Coecke	-3685
▁Common	-3686
▁Commun	-3687
▁Concat	-3688
▁Conrad	-3689
▁Creole	-3690
▁Curtis	-3691
▁DeWitt	-3692
▁Depart	-3693
▁Design	-3694
▁During	-3695
▁Dōchin	-3696
▁Edward	-3697
▁Energy	-3698
▁Europe	-3699
Net	-3700
▁ga	-3701
Keep	-3702
Rate	-3703
Vari	-3704
case	-3705
ells	-3706
ocol	-3707
wide	-3708
▁13,	-3709
▁Cop	-3710
▁Rot	-3711
▁add	-3712
▁dub	-3713
▁six	-3714
▁ult	-3715
▁via	-3716
enhof	-3717
ensic	-3718
ensus	-3719
estig	-3720
given	-3721
merly	-3722
metal	-3723
oined	-3724
ourse	-3725
pless	-3726
sense	-3727
▁1917	-3728
▁1924	-3729
▁1928	-3730
▁2000	-3731
▁2001	-3732
▁2012	-3733
▁2024	-3734
▁Also	-3735
▁Cave	-3736
▁Jake	-3737
▁Part	-3738
▁cult	-3739
▁exem	-3740
▁form	-3741
▁plus	-3742
▁pole	-3743
▁stop	-3744
▁wide	-3745
Thirty	-3746
antage	-3747
bjects	-3748
erised	-3749
ishing	-3750
▁1911)	-3751
▁1921,	-3752
▁2002,	-3753
▁2007.	-3754
▁2012,	-3755
▁2013,	-3756
▁Along	-3757
▁Ghost	-3758
▁PHASE	-3759
▁Peace	-3760
▁Signs	-3761
▁above	-3762
▁misqu	-3763
▁Events	-3764
▁FOOBAR	-3765
▁Figure	-3766
▁Foobar	-3767
▁Franck	-3768
▁French	-3769
▁Future	-3770
▁Garmus	-3771
▁George	-3772
▁Glover	-3773
▁Golden	-3774
▁Google	-3775
▁Grover	-3776
▁Gustav	-3777
▁Halsey	-3778
▁Hashim	-3779
▁Hawaii	-3780
▁Hevesy	-3781
▁Hoover	-3782
▁Inform	-3783
▁Injury	-3784
▁Intake	-3785
▁Jargon	-3786
▁Joshua	-3787
▁Korean	-3788
▁Lafond	-3789
▁Latent	-3790
▁Latino	-3791
▁Leland	-3792
▁Linear	-3793
▁Lisbon	-3794
▁LuaJIT	-3795
▁Malala	-3796
▁Martha	-3797
▁Matter	-3798
▁Menstr	-3799
rd	-3800
▁Sub	-3801
▁art	-3802
▁seen	-3803
▁2006,	-3804
▁2016,	-3805
▁joint	-3806
▁suite	-3807
casting	-3808
▁Modern	-3809
▁Movies	-3810
▁Nernst	-3811
▁Nether	-3812
▁Number	-3813
▁Oricon	-3814
▁Origin	-3815
▁Parker	-3816
▁Pertin	-3817
▁Planck	-3818
▁Points	-3819
▁Polish	-3820
▁Powers	-3821
▁Prague	-3822
▁Radial	-3823
▁Robert	-3824
▁Rotten	-3825
▁Sanger	-3826
▁Season	-3827
▁Sledge	-3828
▁Smokey	-3829
▁Steven	-3830
▁Stover	-3831
▁Strick	-3832
▁String	-3833
▁Supper	-3834
▁Suzhou	-3835
▁Sydney	-3836
▁Theory	-3837
▁Videos	-3838
▁Visual	-3839
▁Walter	-3840
▁Werner	-3841
▁Yandex	-3842
▁Yuzuru	-3843
▁accept	-3844
▁actual	-3845
▁aerosp	-3846
▁affili	-3847
▁aggreg	-3848
▁albums	-3849
▁allows	-3850
▁always	-3851
▁answer	-3852
▁around	-3853
▁assume	-3854
▁atomic	-3855
▁become	-3856
▁before	-3857
▁begins	-3858
▁beyond	-3859
▁binary	-3860
▁bottom	-3861
▁branch	-3862
▁broken	-3863
▁cannot	-3864
▁change	-3865
▁charts	-3866
▁chosen	-3867
▁cognit	-3868
▁constr	-3869
▁corout	-3870
▁critic	-3871
▁design	-3872
▁dimens	-3873
▁domain	-3874
▁either	-3875
▁emerge	-3876
▁ending	-3877
▁enzyme	-3878
▁evolve	-3879
▁expand	-3880
▁family	-3881
▁faster	-3882
▁figure	-3883
▁freely	-3884
▁friend	-3885
▁giving	-3886
▁govern	-3887
▁graphs	-3888
▁groups	-3889
▁hacker	-3890
▁halves	-3891
▁happin	-3892
▁having	-3893
▁hiatus	-3894
▁housew	-3895
▁humans	-3896
▁impact	-3897
▁insect	-3898
▁issued	-3899
▁issues	-3900
▁joined	-3901
▁lambeq	-3902
▁letter	-3903
▁listed	-3904
▁logics	-3905
▁longer	-3906
▁making	-3907
▁mammal	-3908
▁marine	-3909
▁memory	-3910
▁method	-3911
▁models	-3912
▁module	-3913
▁moving	-3914
▁normal	-3915
▁number	-3916
▁occurs	-3917
▁oldest	-3918
▁online	-3919
▁parent	-3920
▁partic	-3921
▁passed	-3922
▁pidgin	-3923
▁prizes	-3924
▁recent	-3925
▁record	-3926
▁recurs	-3927
▁reduce	-3928
▁sacred	-3929
▁sample	-3930
▁satisf	-3931
▁saying	-3932
▁scalar	-3933
▁severe	-3934
▁signed	-3935
▁simple	-3936
▁singer	-3937
▁skills	-3938
▁source	-3939
▁speech	-3940
▁stable	-3941
▁stifle	-3942
▁streak	-3943
▁strong	-3944
▁switch	-3945
▁syntax	-3946
▁tagger	-3947
▁taking	-3948
▁tapped	-3949
▁target	-3950
▁things	-3951
▁thrown	-3952
▁toward	-3953
▁trauma	-3954
▁unable	-3955
▁unless	-3956
▁viewed	-3957
▁waggle	-3958
▁within	-3959
▁worked	-3960
Complete	-3961
Gradient	-3962
Touching	-3963
Variable	-3964
agmatics	-3965
allelism	-3966
ambridge	-3967
archived	-3968
atistics	-3969
chemical	-3970
chronous	-3971
cography	-3972
complete	-3973
coveries	-3974
creasing	-3975
entified	-3976
esirable	-3977
existing	-3978
inspired	-3979
ionaries	-3980
iterated	-3981
iversity	-3982
jections	-3983
junction	-3984
medicine	-3985
mentally	-3986
oriented	-3987
ousafzai	-3988
quential	-3989
redients	-3990
reviewed	-3991
ribution	-3992
rounding	-3993
structor	-3994
tailored	-3995
tainment	-3996
therhood	-3997
tolerant	-3998
uristics	-3999
▁(0,0,0)	-4000
▁(1903),	-4001
▁(1939),	-4002
▁(1963),	-4003
▁(2018),	-4004
▁(2020),	-4005
▁(2023).	-4006
▁7.4/10,	-4007
▁Actress	-4008
▁Address	-4009
▁Amentii	-4010
▁Android	-4011
▁Anthony	-4012
▁Ballmer	-4013
▁BarCamp	-4014
▁Bartley	-4015
▁Battles	-4016
▁Because	-4017
▁Belgium	-4018
▁British	-4019
▁Chapter	-4020
▁Charles	-4021
▁Charlie	-4022
▁College	-4023
▁Coordin	-4024
▁Corpora	-4025
▁Denmark	-4026
▁Destiny	-4027
▁DisCoPy	-4028
▁Donatti	-4029
▁Fantasy	-4030
▁Florida	-4031
▁Fortran	-4032
▁Germans	-4033
▁Germany	-4034
▁Granada	-4035
▁Haitian	-4036
▁Harriet	-4037
▁Identif	-4038
▁Illness	-4039
▁Instead	-4040
▁Jackson	-4041
▁Jacobus	-4042
▁Kingdom	-4043
▁Laplace	-4044
▁Leading	-4045
▁Library	-4046
▁Massach	-4047
▁Medical	-4048
▁Methods	-4049
▁Monique	-4050
▁Nuclear	-4051
▁Objects	-4052
▁October	-4053
▁Olympic	-4054
▁Optical	-4055
▁Pauling	-4056
▁Pointed	-4057
▁Premise	-4058
▁Present	-4059
▁Protein	-4060
▁Records	-4061
▁Röntgen	-4062
▁Sapporo	-4063
▁Seattle	-4064
▁Simpler	-4065
▁Singles	-4066
▁Sources	-4067
▁Synergy	-4068
▁Toolkit	-4069
▁Typical	-4070
▁Unicorn	-4071
▁Walther	-4072
▁Wieland	-4073
▁Wilhelm	-4074
▁WordNet	-4075
▁academy	-4076
▁acronym	-4077
▁adapted	-4078
▁allowed	-4079
▁because	-4080
▁bioinor	-4081
▁broader	-4082
▁careers	-4083
▁century	-4084
▁certain	-4085
▁chunker	-4086
▁classes	-4087
▁classic	-4088
▁cloning	-4089
▁closely	-4090
▁creates	-4091
▁credits	-4092
▁culture	-4093
▁current	-4094
▁decades	-4095
▁denoted	-4096
▁descent	-4097
▁details	-4098
▁display	-4099
▁divided	-4100
▁divides	-4101
▁dynamic	-4102
▁earlier	-4103
▁educate	-4104
▁environ	-4105
▁factory	-4106
▁feature	-4107
▁feedfor	-4108
▁fighter	-4109
▁focused	-4110
▁further	-4111
▁grammar	-4112
▁greater	-4113
▁hackers	-4114
▁helpful	-4115
▁improve	-4116
▁labeled	-4117
▁leading	-4118
▁lexical	-4119
▁loading	-4120
▁manager	-4121
▁manuals	-4122
▁markers	-4123
▁married	-4124
▁members	-4125
▁metallo	-4126
▁musical	-4127
▁offered	-4128
▁options	-4129
▁parsing	-4130
▁perfect	-4131
▁phrases	-4132
▁playful	-4133
▁popular	-4134
▁portion	-4135
▁primary	-4136
▁produce	-4137
▁provide	-4138
▁quarter	-4139
▁regular	-4140
▁require	-4141
▁results	-4142
▁resumed	-4143
▁scoring	-4144
▁selling	-4145
▁several	-4146
▁sharing	-4147
▁singles	-4148
▁skating	-4149
▁slicing	-4150
▁someone	-4151
▁sources	-4152
▁speedup	-4153
▁squared	-4154
▁started	-4155
▁stopped	-4156
▁storage	-4157
▁subsets	-4158
▁success	-4159
▁symbols	-4160
▁tagging	-4161
▁talents	-4162
▁towards	-4163
▁turning	-4164
▁uniform	-4165
▁univers	-4166
▁utilize	-4167
▁version	-4168
▁whereas	-4169
▁winners	-4170
▁wrapped	-4171
Sometimes	-4172
aceholder	-4173
ationship	-4174
character	-4175
chemistry	-4176
classname	-4177
conscious	-4178
generally	-4179
generated	-4180
hematical	-4181
inguished	-4182
resenting	-4183
struction	-4184
▁(10.9%),	-4185
▁332,738,	-4186
▁Abridged	-4187
▁Académie	-4188
▁Analysis	-4189
▁BabelNET	-4190
▁Bachelor	-4191
▁Brussels	-4192
▁Category	-4193
▁Colossal	-4194
▁Columbia	-4195
▁Compound	-4196
▁Creating	-4197
▁Criteria	-4198
▁Crowther	-4199
▁Displays	-4200
▁Distance	-4201
▁Einstein	-4202
▁Emirates	-4203
▁Episodes	-4204
▁Examples	-4205
▁Goeppert	-4206
▁Heinrich	-4207
▁Henricus	-4208
▁Honolulu	-4209
▁Journals	-4210
▁Kanazawa	-4211
▁Lawrence	-4212
▁LuaRocks	-4213
▁Madeline	-4214
▁Makuhari	-4215
▁Maryland	-4216
▁Parallel	-4217
▁Parsells	-4218
▁Portugal	-4219
▁Railroad	-4220
▁Reverend	-4221
▁Richards	-4222
▁Services	-4223
▁Siegbahn	-4224
▁Standard	-4225
▁Theodore	-4226
▁Timeline	-4227
▁Together	-4228
▁Tomatoes	-4229
▁Whistled	-4230
▁Workshop	-4231
▁Zamenhof	-4232
▁abstract	-4233
▁acquired	-4234
▁adoption	-4235
▁allusion	-4236
▁appeared	-4237
▁applying	-4238
▁approach	-4239
▁approval	-4240
▁assigned	-4241
▁attempts	-4242
▁attested	-4243
▁audition	-4244
▁avionics	-4245
▁blessing	-4246
▁category	-4247
▁champion	-4248
▁chatbots	-4249
▁chemical	-4250
▁chemists	-4251
▁citation	-4252
▁codename	-4253
▁combines	-4254
▁commands	-4255
▁computed	-4256
▁computes	-4257
▁consists	-4258
▁contrast	-4259
▁cookbook	-4260
▁counters	-4261
▁credited	-4262
▁database	-4263
▁dialects	-4264
▁directly	-4265
▁discrete	-4266
▁dispatch	-4267
▁distance	-4268
▁division	-4269
▁dominate	-4270
▁earliest	-4271
▁embedded	-4272
▁emerging	-4273
▁emphasis	-4274
▁entities	-4275
▁evaluate	-4276
▁evidence	-4277
▁examples	-4278
▁explains	-4279
▁extended	-4280
▁families	-4281
▁feminist	-4282
▁figurine	-4283
▁flexible	-4284
▁flexione	-4285
▁forensic	-4286
▁formerly	-4287
▁grammars	-4288
▁graphics	-4289
▁hardware	-4290
▁identity	-4291
▁included	-4292
▁indexing	-4293
▁industry	-4294
▁inspired	-4295
▁intended	-4296
▁interest	-4297
▁intimate	-4298
▁investig	-4299
▁kinetics	-4300
▁matching	-4301
▁measures	-4302
▁metasynt	-4303
▁military	-4304
▁momentum	-4305
▁multiple	-4306
▁neurosci	-4307
▁nonsense	-4308
▁obtained	-4309
▁ophthalm	-4310
▁ordinary	-4311
▁overlaps	-4312
▁overseen	-4313
▁particle	-4314
▁physical	-4315
▁planning	-4316
▁platform	-4317
▁problems	-4318
▁progress	-4319
▁protocol	-4320
▁purposes	-4321
▁pursuing	-4322
▁quatrain	-4323
▁question	-4324
▁remember	-4325
▁replaced	-4326
▁requires	-4327
▁resizing	-4328
▁robotics	-4329
▁routines	-4330
▁security	-4331
▁selected	-4332
▁semiaxis	-4333
▁semicond	-4334
▁standard	-4335
▁stemming	-4336
▁straight	-4337
▁syllable	-4338
▁symmetry	-4339
▁thoughts	-4340
▁together	-4341
▁training	-4342
▁unshared	-4343
▁weighted	-4344
▁whatever	-4345
changeably	-4346
ertainment	-4347
▁1940–42).	-4348
▁7,731,004	-4349
▁Accolades	-4350
▁According	-4351
▁Adventure	-4352
▁Alchemist	-4353
▁Allergies	-4354
▁Anthology	-4355
▁Australia	-4356
▁Barcelona	-4357
▁Beanstalk	-4358
▁Boryweitz	-4359
▁Butenandt	-4360
▁CHEMISTRY	-4361
▁Cambridge	-4362
▁Chinatown	-4363
▁Citations	-4364
▁ClassNLLC	-4365
▁Computing	-4366
▁Condensed	-4367
▁Criterion	-4368
▁Directors	-4369
▁Discourse	-4370
▁Edinburgh	-4371
▁Eisenberg	-4372
▁Empirical	-4373
▁Emulation	-4374
▁Francisco	-4375
▁Française	-4376
▁Fullmetal	-4377
▁Interoper	-4378
▁Ioannidis	-4379
▁Lebensmal	-4380
▁Locations	-4381
▁Logicians	-4382
▁Materials	-4383
▁Menstrual	-4384
▁Operation	-4385
▁Pertinent	-4386
▁Photonics	-4387
▁Principle	-4388
▁Reception	-4389
▁Recurring	-4390
▁Rosemarie	-4391
▁Scientist	-4392
▁Sharpless	-4393
▁Sometimes	-4394
▁Takahashi	-4395
▁Technical	-4396
▁Vancouver	-4397
▁Yoshikuni	-4398
▁Yousafzai	-4399
▁Zsigmondy	-4400
▁according	-4401
▁advantage	-4402
▁adverbial	-4403
▁aerospace	-4404
▁ambiguity	-4405
▁ambitious	-4406
▁analogous	-4407
▁answering	-4408
▁arbitrary	-4409
▁automatic	-4410
▁autonomic	-4411
▁available	-4412
▁capturing	-4413
▁cofactors	-4414
▁cognition	-4415
▁cognitive	-4416
▁combining	-4417
▁community	-4418
▁component	-4419
▁compounds	-4420
▁consensus	-4421
▁currently	-4422
▁depending	-4423
▁determine	-4424
▁developer	-4425
▁directing	-4426
▁direction	-4427
▁disambigu	-4428
▁discussed	-4429
▁emergency	-4430
▁empirical	-4431
▁etymology	-4432
▁evolution	-4433
▁exception	-4434
▁executive	-4435
▁explained	-4436
▁extension	-4437
▁factories	-4438
▁favorable	-4439
▁featuring	-4440
▁generally	-4441
▁geometric	-4442
▁gradients	-4443
▁graphical	-4444
▁happiness	-4445
▁imaginary	-4446
▁immensely	-4447
▁influence	-4448
▁installed	-4449
▁irregular	-4450
▁libraries	-4451
▁magnetics	-4452
▁materials	-4453
▁medicinal	-4454
▁misquoted	-4455
▁multitude	-4456
▁operating	-4457
▁optimised	-4458
▁paradigms	-4459
▁performed	-4460
▁philology	-4461
▁positions	-4462
▁primarily	-4463
▁providing	-4464
▁quadratic	-4465
▁retrieval	-4466
▁scripting	-4467
▁secondary	-4468
▁simulated	-4469
▁streaming	-4470
▁structure	-4471
▁supported	-4472
▁technical	-4473
▁therefore	-4474
▁tokenizer	-4475
▁typically	-4476
▁utilities	-4477
▁whistling	-4478
▁worldwide	-4479
dimensional	-4480
▁Background	-4481
▁Bioorganic	-4482
▁Comparison	-4483
▁Complexity	-4484
▁Conference	-4485
▁Coordinate	-4486
▁Copenhagen	-4487
▁Department	-4488
▁Heisenberg	-4489
▁Metacritic	-4490
▁Miniseries	-4491
▁Multiflush	-4492
▁NobelPrize	-4493
▁Pittsburgh	-4494
▁Processing	-4495
▁Production	-4496
▁Providence	-4497
▁Publishing	-4498
▁Richardson	-4499
▁Scientific	-4500
▁Sequential	-4501
▁Simplified	-4502
▁Statistics	-4503
▁Stochastic	-4504
▁Strickland	-4505
▁Television	-4506
▁University	-4507
▁Washington	-4508
▁Wiktionary	-4509
▁activities	-4510
▁adaptation	-4511
▁aggregator	-4512
▁appearance	-4513
▁applicable	-4514
▁attempting	-4515
▁benefiting	-4516
▁capability	-4517
▁cheatsheet	-4518
▁classified	-4519
▁comparison	-4520
▁complexity	-4521
▁composites	-4522
▁comprising	-4523
▁contention	-4524
▁convenient	-4525
▁convention	-4526
▁coroutines	-4527
▁decreasing	-4528
▁derivative	-4529
▁describing	-4530
▁developing	-4531
▁dimensions	-4532
▁documented	-4533
▁electrical	-4534
▁electronic	-4535
▁embeddings	-4536
▁executives	-4537
▁explaining	-4538
▁expressive	-4539
▁government	-4540
▁herbicides	-4541
▁heuristics	-4542
▁highlights	-4543
▁housewives	-4544
▁identified	-4545
▁indicating	-4546
▁individual	-4547
▁inherently	-4548
▁interfaces	-4549
▁miniseries	-4550
▁multilayer	-4551
▁obligation	-4552
▁originally	-4553
▁originated	-4554
▁particular	-4555
▁perceptron	-4556
▁physicists	-4557
▁physiology	-4558
▁pragmatics	-4559
▁presumably	-4560
▁production	-4561
▁properties	-4562
▁references	-4563
▁regulating	-4564
▁regulation	-4565
▁relatively	-4566
▁repetition	-4567
▁repurposed	-4568
▁researcher	-4569
▁researches	-4570
▁responders	-4571
▁restricted	-4572
▁satisfying	-4573
▁signifying	-4574
▁simplifies	-4575
▁statistics	-4576
▁stochastic	-4577
▁subjective	-4578
▁subprogram	-4579
▁techniques	-4580
▁television	-4581
▁ultimately	-4582
▁underlying	-4583
▁usefulness	-4584
standardized	-4585
▁1940–1942).	-4586
▁Achievement	-4587
▁Biophysical	-4588
▁Brotherhood	-4589
▁Categorical	-4590
▁Constructed	-4591
▁Directorial	-4592
▁Discography	-4593
▁Electronics	-4594
▁Experiments	-4595
▁Identifying	-4596
▁Information	-4597
▁Instruments	-4598
▁Interlingua	-4599
▁Medications	-4600
▁Netherlands	-4601
▁Nonstandard	-4602
▁Operational	-4603
▁Outstanding	-4604
▁Theoretical	-4605
▁accompanied	-4606
▁acquisition	-4607
▁algorithmic	-4608
▁application	-4609
▁categorical	-4610
▁combination	-4611
▁competition	-4612
▁conjunction	-4613
▁constraints	-4614
▁constructor	-4615
▁contributes	-4616
▁convenience	-4617
▁counterpart	-4618
▁demonstrate	-4619
▁description	-4620
▁discoveries	-4621
▁distinction	-4622
▁efficiently	-4623
▁electronics	-4624
▁environment	-4625
▁exemplifies	-4626
▁feedforward	-4627
▁grammatical	-4628
▁informatics	-4629
▁ingredients	-4630
▁initializes	-4631
▁interpreter	-4632
▁iteratively	-4633
▁linguistics	-4634
▁multinomial	-4635
▁obstruction	-4636
▁parallelism	-4637
▁parentclass	-4638
▁placeholder	-4639
▁probability	-4640
▁projections	-4641
▁prototyping	-4642
▁purportedly	-4643
▁recursively	-4644
▁superlative	-4645
▁surrounding	-4646
▁topological	-4647
▁translation	-4648
▁transposing	-4649
▁undesirable	-4650
▁unimportant	-4651
connectionist	-4652
▁Applications	-4653
▁MSECriterion	-4654
▁Mathematical	-4655
▁Metalanguage	-4656
▁Relationship	-4657
▁Representing	-4658
▁accomplished	-4659
▁affiliations	-4660
▁asynchronous	-4661
▁bioinorganic	-4662
▁collocations	-4663
▁dictionaries	-4664
▁distribution	-4665
▁fluctuations	-4666
▁historically	-4667
▁implementing	-4668
▁insecticides	-4669
▁intermediate	-4670
▁introduction	-4671
▁introductory	-4672
▁learningRate	-4673
▁neuroscience	-4674
▁organization	-4675
▁postgraduate	-4676
▁prescriptive	-4677
▁representing	-4678
▁semantically	-4679
▁successfully	-4680
▁tokenization	-4681
▁universities	-4682
▁unresponsive	-4683
▁Entertainment	-4684
▁Massachusetts	-4685
▁Undergraduate	-4686
▁Understanding	-4687
▁backpropagate	-4688
▁collaborating	-4689
▁distinguished	-4690
▁distributions	-4691
▁entertainment	-4692
▁formalization	-4693
▁incrementally	-4694
▁investigating	-4695
▁metasyntactic	-4696
▁parameterised	-4697
▁semiconductor	-4698
▁serialization	-4699
▁undergraduate	-4700
▁vocalizations	-4701
▁Communications	-4702
▁demonstrations	-4703
▁disambiguation	-4704
▁metalloenzymes	-4705
▁prescriptivism	-4706
▁regularization	-4707
▁transliterated	-4708
▁backpropagating	-4709
▁functionalities	-4710
▁implementations	-4711
▁interchangeably	-4712
▁ophthalmologist	-4713
▁representations	-4714
▁specializations	-4715
Ic	-4716
RC	-4717
Wa	-4718
dd	-4719
eu	-4720
ok	-4721
0–4	-4722
10.	-4723
191	-4724
193	-4725
194	-4726
196	-4727
200	-4728
201	-4729
202	-4730
38,	-4731
39,	-4732
44,	-4733
54,	-4734
7,7	-4735
895	-4736
896	-4737
Bir	-4738
CoC	-4739
Cur	-4740
For	-4741
Ful	-4742
Gro	-4743
LAS	-4744
MPL	-4745
NIS	-4746
OOB	-4747
Pri	-4748
Qat	-4749
TMR	-4750
asu	-4751
awt	-4752
chu	-4753
cks	-4754
cus	-4755
eca	-4756
ela	-4757
enr	-4758
fle	-4759
ftw	-4760
gba	-4761
gro	-4762
hik	-4763
hua	-4764
ibr	-4765
isc	-4766
ldw	-4767
lem	-4768
let	-4769
lle	-4770
pol	-4771
rch	-4772
rob	-4773
rog	-4774
rou	-4775
rro	-4776
sem	-4777
syl	-4778
tab	-4779
tax	-4780
tee	-4781
tsb	-4782
uri	-4783
usu	-4784
ype	-4785
zho	-4786
–19	-4787
▁13	-4788
▁18	-4789
▁7.	-4790
▁Lu	-4791
▁Pa	-4792
▁Po	-4793
▁Pu	-4794
▁QR	-4795
▁Yu	-4796
▁sy	-4797
0,78	-4798
1,00	-4799
62	-4800
9%	-4801
Pr	-4802
ca	-4803
kn	-4804
kt	-4805
np	-4806
nu	-4807
Dom	-4808
Tas	-4809
adé	-4810
alt	-4811
cas	-4812
cer	-4813
chn	-4814
com	-4815
eom	-4816
iel	-4817
jad	-4818
lel	-4819
lit	-4820
mel	-4821
mol	-4822
non	-4823
ogo	-4824
ped	-4825
reo	-4826
rod	-4827
uff	-4828
uns	-4829
wab	-4830
zur	-4831
▁Ac	-4832
▁Aj	-4833
▁Ap	-4834
▁Au	-4835
▁SA	-4836
▁Sa	-4837
▁Sc	-4838
▁Sk	-4839
▁Sl	-4840
▁Sw	-4841
▁TM	-4842
▁Ta	-4843
▁We	-4844
▁da	-4845
▁ep	-4846
▁ml	-4847
▁mo	-4848
▁mu	-4849
2020	-4850
62).	-4851
FOOB	-4852
Hist	-4853
MPLE	-4854
UBAR	-4855
Your	-4856
Yous	-4857
ache	-4858
agin	-4859
ainm	-4860
ambi	-4861
aphs	-4862
arli	-4863
atur	-4864
awty	-4865
bigu	-4866
blem	-4867
bols	-4868
bout	-4869
bpro	-4870
brar	-4871
cale	-4872
ccol	-4873
ccur	-4874
cond	-4875
cram	-4876
dent	-4877
dust	-4878
east	-4879
eatt	-4880
ecur	-4881
edge	-4882
efin	-4883
elds	-4884
elis	-4885
erch	-4886
esul	-4887
etat	-4888
evis	-4889
ewiv	-4890
foob	-4891
fuln	-4892
geab	-4893
gebr	-4894
gent	-4895
gust	-4896
hash	-4897
hile	-4898
hist	-4899
2)	-4900
Ot	-4901
SQ	-4902
VL	-4903
Ya	-4904
fi	-4905
yb	-4906
Cit	-4907
Den	-4908
Dre	-4909
Pit	-4910
Tre	-4911
Wit	-4912
Yas	-4913
aka	-4914
dre	-4915
eab	-4916
eda	-4917
enz	-4918
esp	-4919
fre	-4920
mit	-4921
rab	-4922
rec	-4923
rep	-4924
rom	-4925
rre	-4926
sit	-4927
tre	-4928
xit	-4929
xyz	-4930
▁Na	-4931
▁br	-4932
▁el	-4933
▁pa	-4934
▁pi	-4935
▁po	-4936
▁pu	-4937
atev	-4938
chas	-4939
drea	-4940
edit	-4941
eled	-4942
enin	-4943
gres	-4944
guag	-4945
hley	-4946
iami	-4947
icle	-4948
icon	-4949
iews	-4950
inin	-4951
insp	-4952
ious	-4953
irty	-4954
isit	-4955
itic	-4956
iver	-4957
lang	-4958
leas	-4959
lexi	-4960
loen	-4961
lvan	-4962
mail	-4963
mans	-4964
many	-4965
mars	-4966
mpic	-4967
nter	-4968
ockh	-4969
onom	-4970
orit	-4971
oung	-4972
ousa	-4973
ouse	-4974
pful	-4975
phan	-4976
phas	-4977
pose	-4978
ppli	-4979
pret	-4980
prop	-4981
ptim	-4982
publ	-4983
ragg	-4984
rams	-4985
rapp	-4986
reat	-4987
rete	-4988
rial	-4989
ridg	-4990
roac	-4991
room	-4992
sign	-4993
sion	-4994
slit	-4995
sman	-4996
sper	-4997
sued	-4998
swer	-4999
26	-5000
Ar	-5001
Je	-5002
Ka	-5003
Sl	-5004
lh	-5005
lw	-5006
CoP	-5007
Has	-5008
Lar	-5009
Sin	-5010
War	-5011
Whe	-5012
alp	-5013
alu	-5014
ara	-5015
arm	-5016
arp	-5017
dan	-5018
dar	-5019
eal	-5020
ebs	-5021
eit	-5022
far	-5023
gal	-5024
gui	-5025
hal	-5026
har	-5027
hur	-5028
mic	-5029
oar	-5030
rie	-5031
rig	-5032
sar	-5033
sif	-5034
tar	-5035
uar	-5036
uin	-5037
war	-5038
▁IC	-5039
▁PH	-5040
▁So	-5041
▁aw	-5042
▁fo	-5043
▁lu	-5044
▁ol	-5045
▁sw	-5046
anch	-5047
arin	-5048
bing	-5049
chus	-5050
earn	-5051
edal	-5052
eral	-5053
inar	-5054
inga	-5055
ingt	-5056
iset	-5057
onar	-5058
ried	-5059
sing	-5060
tact	-5061
take	-5062
terf	-5063
thes	-5064
tist	-5065
tles	-5066
uild	-5067
uist	-5068
unic	-5069
upon	-5070
uris	-5071
urit	-5072
urro	-5073
used	-5074
uses	-5075
usta	-5076
ustr	-5077
utes	-5078
uxil	-5079
uzho	-5080
vans	-5081
veni	-5082
verl	-5083
ybri	-5084
yner	-5085
▁5.3	-5086
▁Art	-5087
▁Bea	-5088
▁Che	-5089
▁Coe	-5090
▁DeW	-5091
▁Dep	-5092
▁Dur	-5093
▁Ell	-5094
▁Emp	-5095
▁Eng	-5096
▁Haw	-5097
▁Hev	-5098
▁ICM	-5099
24	-5100
95	-5101
AC	-5102
As	-5103
Gu	-5104
Yo	-5105
ku	-5106
rw	-5107
639	-5108
Bel	-5109
Dan	-5110
Eis	-5111
Fan	-5112
Han	-5113
Lan	-5114
Lel	-5115
Len	-5116
Pen	-5117
San	-5118
Ten	-5119
Van	-5120
Vis	-5121
anç	-5122
can	-5123
dul	-5124
elo	-5125
enb	-5126
env	-5127
esy	-5128
han	-5129
iso	-5130
isu	-5131
itu	-5132
kee	-5133
lar	-5134
len	-5135
mun	-5136
oov	-5137
pan	-5138
rst	-5139
sen	-5140
uan	-5141
urc	-5142
vis	-5143
wen	-5144
xam	-5145
xis	-5146
▁IO	-5147
▁Pl	-5148
▁ca	-5149
▁ce	-5150
▁me	-5151
▁ty	-5152
anne	-5153
ctur	-5154
eran	-5155
eren	-5156
eris	-5157
etac	-5158
eter	-5159
heet	-5160
inen	-5161
istr	-5162
join	-5163
mary	-5164
ocum	-5165
ookb	-5166
umab	-5167
yber	-5168
▁Jej	-5169
▁Kev	-5170
▁Law	-5171
▁Lew	-5172
▁MSE	-5173
▁Mul	-5174
▁NIS	-5175
▁Nig	-5176
▁Pas	-5177
▁Per	-5178
▁Pri	-5179
▁Ric	-5180
▁Roy	-5181
▁Sar	-5182
▁Skł	-5183
▁Smo	-5184
▁Sus	-5185
▁TMR	-5186
▁Tat	-5187
▁Ten	-5188
▁Tor	-5189
▁Yas	-5190
▁Yos	-5191
▁abo	-5192
▁acc	-5193
▁acr	-5194
▁agg	-5195
▁ani	-5196
▁ano	-5197
▁ans	-5198
▁aro	-5199
15	-5200
44	-5201
Am	-5202
Ap	-5203
HL	-5204
Li	-5205
gd	-5206
ng	-5207
nç	-5208
xa	-5209
zi	-5210
Bro	-5211
Ori	-5212
Ric	-5213
Var	-5214
ben	-5215
bic	-5216
del	-5217
dic	-5218
dis	-5219
edi	-5220
edl	-5221
edu	-5222
eed	-5223
gic	-5224
hic	-5225
his	-5226
icG	-5227
ici	-5228
icl	-5229
isC	-5230
kes	-5231
kun	-5232
lic	-5233
lis	-5234
mes	-5235
mis	-5236
nes	-5237
par	-5238
ril	-5239
rum	-5240
sis	-5241
tal	-5242
tis	-5243
uen	-5244
una	-5245
urg	-5246
wic	-5247
wis	-5248
xes	-5249
yin	-5250
zed	-5251
▁es	-5252
atri	-5253
ctly	-5254
earc	-5255
etwe	-5256
ilab	-5257
isam	-5258
istl	-5259
lark	-5260
lion	-5261
ondy	-5262
oric	-5263
ovem	-5264
reel	-5265
rest	-5266
sist	-5267
thal	-5268
urgh	-5269
xing	-5270
▁Ann	-5271
▁Jam	-5272
▁Lex	-5273
▁Tel	-5274
▁bre	-5275
▁cal	-5276
▁cat	-5277
▁cel	-5278
▁cen	-5279
▁cer	-5280
▁cho	-5281
▁cle	-5282
▁cro	-5283
▁dan	-5284
▁dyn	-5285
▁edu	-5286
▁emp	-5287
▁eng	-5288
▁fai	-5289
▁fle	-5290
▁hel	-5291
▁inc	-5292
▁ini	-5293
▁inp	-5294
▁ins	-5295
▁jad	-5296
▁lan	-5297
▁lat	-5298
▁lis	-5299
54	-5300
65	-5301
QF	-5302
We	-5303
Yu	-5304
di	-5305
tb	-5306
vo	-5307
xt	-5308
▁q	-5309
Bri	-5310
Cre	-5311
Gat	-5312
Goo	-5313
Lat	-5314
Les	-5315
Man	-5316
Med	-5317
Nat	-5318
Ner	-5319
Nor	-5320
Sar	-5321
Was	-5322
arC	-5323
asi	-5324
ats	-5325
bat	-5326
bor	-5327
chr	-5328
des	-5329
eat	-5330
ety	-5331
hat	-5332
kat	-5333
lat	-5334
lec	-5335
lym	-5336
mar	-5337
nat	-5338
nor	-5339
orc	-5340
por	-5341
rat	-5342
sat	-5343
sso	-5344
tes	-5345
the	-5346
uat	-5347
use	-5348
vor	-5349
wor	-5350
zes	-5351
▁Af	-5352
▁Fa	-5353
▁fy	-5354
▁la	-5355
Wing	-5356
athe	-5357
eder	-5358
elin	-5359
enst	-5360
heor	-5361
ingl	-5362
iser	-5363
orat	-5364
redu	-5365
rent	-5366
rien	-5367
thol	-5368
ulat	-5369
ullm	-5370
▁Bir	-5371
▁Pin	-5372
▁Sig	-5373
▁Whe	-5374
▁dow	-5375
▁lon	-5376
▁los	-5377
▁mon	-5378
▁obt	-5379
▁ont	-5380
▁pic	-5381
▁pub	-5382
▁pur	-5383
▁sen	-5384
▁syn	-5385
▁tho	-5386
▁tok	-5387
▁too	-5388
▁tor	-5389
▁unl	-5390
▁uns	-5391
▁wen	-5392
▁xyz	-5393
▁zer	-5394
AMPLE	-5395
HEMIS	-5396
JCNLP	-5397
OOBAR	-5398
PQRST	-5399
06	-5400
1)	-5401
14	-5402
43	-5403
90	-5404
AB	-5405
Aj	-5406
Al	-5407
CH	-5408
EP	-5409
Ob	-5410
Ol	-5411
Wo	-5412
ae	-5413
be	-5414
bp	-5415
fu	-5416
gt	-5417
hu	-5418
lf	-5419
nl	-5420
oP	-5421
rv	-5422
va	-5423
yt	-5424
Can	-5425
Der	-5426
Ele	-5427
Ger	-5428
His	-5429
Kon	-5430
Mas	-5431
Mon	-5432
Non	-5433
Son	-5434
aii	-5435
bon	-5436
dus	-5437
eer	-5438
eri	-5439
erp	-5440
ger	-5441
inn	-5442
lon	-5443
nic	-5444
nin	-5445
nst	-5446
ona	-5447
onf	-5448
oni	-5449
onm	-5450
onr	-5451
pon	-5452
ser	-5453
stg	-5454
unc	-5455
wid	-5456
xic	-5457
▁am	-5458
▁dr	-5459
Sing	-5460
anco	-5461
ctor	-5462
erin	-5463
onin	-5464
ouch	-5465
pend	-5466
pion	-5467
sess	-5468
sues	-5469
ting	-5470
▁Alf	-5471
▁Cas	-5472
▁Kaw	-5473
▁coo	-5474
▁dev	-5475
▁dur	-5476
▁sig	-5477
abeth	-5478
acred	-5479
actor	-5480
agger	-5481
agnet	-5482
ahash	-5483
ailor	-5484
aking	-5485
apted	-5486
aract	-5487
arall	-5488
assic	-5489
atent	-5490
atric	-5491
atrix	-5492
atshe	-5493
aving	-5494
babil	-5495
bicid	-5496
bines	-5497
bolic	-5498
cadém	-5499
04	-5500
59	-5501
7)	-5502
79	-5503
94	-5504
CO	-5505
Ci	-5506
Cr	-5507
Cz	-5508
Dr	-5509
Ed	-5510
Fo	-5511
IB	-5512
Ko	-5513
Le	-5514
ML	-5515
On	-5516
Qu	-5517
TK	-5518
Te	-5519
Ti	-5520
Tw	-5521
Zo	-5522
dv	-5523
eW	-5524
lg	-5525
lv	-5526
pi	-5527
pm	-5528
rm	-5529
tt	-5530
wl	-5531
xp	-5532
Bal	-5533
Che	-5534
Com	-5535
Mal	-5536
Per	-5537
Rel	-5538
Wal	-5539
cel	-5540
col	-5541
dro	-5542
edd	-5543
hit	-5544
hun	-5545
kel	-5546
kem	-5547
ksh	-5548
los	-5549
ned	-5550
nom	-5551
oro	-5552
pub	-5553
rus	-5554
sal	-5555
vit	-5556
▁Te	-5557
▁ci	-5558
▁cr	-5559
7,73	-5560
cred	-5561
cter	-5562
eres	-5563
erly	-5564
etit	-5565
ilad	-5566
ingd	-5567
itis	-5568
odul	-5569
orab	-5570
outp	-5571
phth	-5572
quad	-5573
tero	-5574
▁7.4	-5575
▁Sap	-5576
▁Sol	-5577
▁Was	-5578
ading	-5579
ariab	-5580
cated	-5581
cause	-5582
ccomp	-5583
ccord	-5584
ccurs	-5585
cepts	-5586
compl	-5587
cords	-5588
ctory	-5589
cular	-5590
defin	-5591
dergr	-5592
dward	-5593
ecaus	-5594
echni	-5595
econd	-5596
edded	-5597
edish	-5598
efore	-5599
(1	-5600
01	-5601
13	-5602
28	-5603
Eu	-5604
Fa	-5605
Fi	-5606
Go	-5607
Io	-5608
LR	-5609
Ma	-5610
Na	-5611
OS	-5612
Ou	-5613
Po	-5614
Sa	-5615
Sc	-5616
bo	-5617
bu	-5618
dé	-5619
ey	-5620
ga	-5621
kp	-5622
nm	-5623
ny	-5624
oC	-5625
oa	-5626
pa	-5627
rl	-5628
rt	-5629
sy	-5630
34,	-5631
Car	-5632
Ghe	-5633
dex	-5634
eon	-5635
equ	-5636
erd	-5637
esi	-5638
gho	-5639
gur	-5640
gus	-5641
hei	-5642
hez	-5643
hre	-5644
ikt	-5645
ioc	-5646
itc	-5647
ono	-5648
orw	-5649
oty	-5650
pur	-5651
ras	-5652
req	-5653
tor	-5654
uru	-5655
▁Mo	-5656
▁Tw	-5657
▁oc	-5658
▁se	-5659
alys	-5660
anic	-5661
atel	-5662
back	-5663
emin	-5664
erat	-5665
ided	-5666
nown	-5667
ppor	-5668
uent	-5669
uing	-5670
year	-5671
zing	-5672
▁Idi	-5673
▁ang	-5674
▁les	-5675
elism	-5676
emony	-5677
enter	-5678
erion	-5679
erman	-5680
esent	-5681
esian	-5682
etail	-5683
ethod	-5684
feren	-5685
ffili	-5686
fying	-5687
hared	-5688
hawty	-5689
ician	-5690
iffer	-5691
iflus	-5692
igure	-5693
ilson	-5694
iment	-5695
inbur	-5696
ineer	-5697
inent	-5698
inger	-5699
11	-5700
22	-5701
30	-5702
4/	-5703
91	-5704
99	-5705
Ac	-5706
BQ	-5707
Br	-5708
CN	-5709
Ca	-5710
Dh	-5711
Di	-5712
Ho	-5713
Ju	-5714
LE	-5715
Mi	-5716
No	-5717
Of	-5718
PF	-5719
Pe	-5720
Za	-5721
bi	-5722
cy	-5723
fe	-5724
gR	-5725
jo	-5726
ma	-5727
mo	-5728
pe	-5729
po	-5730
pu	-5731
rC	-5732
tu	-5733
01,	-5734
Con	-5735
Min	-5736
Por	-5737
Pre	-5738
Wor	-5739
agn	-5740
alo	-5741
atu	-5742
bre	-5743
dol	-5744
hie	-5745
hom	-5746
oic	-5747
onj	-5748
oul	-5749
roa	-5750
rue	-5751
sci	-5752
tas	-5753
tri	-5754
uir	-5755
xas	-5756
yan	-5757
▁af	-5758
▁bl	-5759
amic	-5760
aral	-5761
aril	-5762
atar	-5763
ceiv	-5764
dult	-5765
edic	-5766
efer	-5767
enig	-5768
etas	-5769
icis	-5770
inor	-5771
ortr	-5772
oved	-5773
real	-5774
regu	-5775
resi	-5776
uded	-5777
uits	-5778
▁Ori	-5779
▁bes	-5780
▁bet	-5781
▁cog	-5782
afond	-5783
amily	-5784
antas	-5785
entat	-5786
idely	-5787
ining	-5788
ionar	-5789
ionic	-5790
irect	-5791
istan	-5792
ister	-5793
istic	-5794
ithin	-5795
ithms	-5796
itics	-5797
iting	-5798
itled	-5799
%)	-5800
,0	-5801
,7	-5802
/1	-5803
03	-5804
05	-5805
07	-5806
35	-5807
38	-5808
82	-5809
An	-5810
Ch	-5811
Dō	-5812
Gi	-5813
HA	-5814
Ku	-5815
LL	-5816
Ov	-5817
RE	-5818
Sh	-5819
Va	-5820
cG	-5821
ds	-5822
eo	-5823
gn	-5824
li	-5825
ra	-5826
rg	-5827
rr	-5828
sC	-5829
vi	-5830
wi	-5831
Cro	-5832
Fut	-5833
Hal	-5834
Hol	-5835
Men	-5836
Ser	-5837
aks	-5838
ani	-5839
cke	-5840
dit	-5841
elP	-5842
erm	-5843
hea	-5844
hro	-5845
men	-5846
rar	-5847
ref	-5848
ums	-5849
whe	-5850
yed	-5851
zab	-5852
▁49	-5853
▁Ra	-5854
▁ti	-5855
arch	-5856
asur	-5857
entu	-5858
gist	-5859
ishe	-5860
ison	-5861
itch	-5862
mist	-5863
odel	-5864
pain	-5865
rele	-5866
ving	-5867
▁NLT	-5868
▁Som	-5869
▁alw	-5870
▁nov	-5871
▁sat	-5872
▁son	-5873
ctron	-5874
dress	-5875
entit	-5876
evere	-5877
ionis	-5878
keniz	-5879
kward	-5880
ldest	-5881
lover	-5882
lowed	-5883
mbiti	-5884
meric	-5885
nalys	-5886
ntgen	-5887
odows	-5888
older	-5889
ollab	-5890
olloc	-5891
olman	-5892
oloss	-5893
ombin	-5894
omeon	-5895
ometh	-5896
omple	-5897
onatt	-5898
onger	-5899
12	-5900
40	-5901
Av	-5902
Ea	-5903
GD	-5904
Gh	-5905
HE	-5906
MN	-5907
QN	-5908
SA	-5909
Sm	-5910
cs	-5911
df	-5912
dn	-5913
eh	-5914
ek	-5915
ez	-5916
io	-5917
kb	-5918
lP	-5919
ml	-5920
my	-5921
nd	-5922
sf	-5923
za	-5924
▁7	-5925
▁8	-5926
嘉邦	-5927
9),	-5928
Cor	-5929
Dis	-5930
Hon	-5931
arn	-5932
bel	-5933
cin	-5934
cru	-5935
cts	-5936
ede	-5937
eds	-5938
fit	-5939
hop	-5940
ior	-5941
ler	-5942
mom	-5943
mon	-5944
nly	-5945
set	-5946
tat	-5947
won	-5948
yon	-5949
▁(0	-5950
▁Aw	-5951
▁Ir	-5952
▁Si	-5953
▁Ti	-5954
▁lo	-5955
▁vo	-5956
63),	-5957
ario	-5958
asic	-5959
dver	-5960
elan	-5961
elay	-5962
erms	-5963
gium	-5964
itle	-5965
ompl	-5966
onis	-5967
oord	-5968
orts	-5969
osem	-5970
oses	-5971
plic	-5972
ppro	-5973
▁Fan	-5974
▁Las	-5975
▁Tak	-5976
▁che	-5977
▁clo	-5978
▁com	-5979
▁pas	-5980
▁wit	-5981
arine	-5982
estab	-5983
lated	-5984
nemon	-5985
oniqu	-5986
onous	-5987
onsci	-5988
openh	-5989
orith	-5990
ormed	-5991
ortug	-5992
oshik	-5993
ostgr	-5994
ought	-5995
oving	-5996
owled	-5997
pects	-5998
press	-5999
-1	-6000
08	-6001
16	-6002
17	-6003
Ad	-6004
Cl	-6005
EM	-6006
El	-6007
Ex	-6008
FQ	-6009
Ga	-6010
It	-6011
Ja	-6012
La	-6013
MP	-6014
Me	-6015
NL	-6016
Pl	-6017
Rö	-6018
Sp	-6019
Su	-6020
ba	-6021
eg	-6022
hr	-6023
hy	-6024
ls	-6025
nb	-6026
no	-6027
pr	-6028
ps	-6029
sN	-6030
tc	-6031
tl	-6032
xc	-6033
yc	-6034
yi	-6035
ze	-6036
Bes	-6037
But	-6038
Mat	-6039
Som	-6040
Wer	-6041
Wil	-6042
adi	-6043
bas	-6044
ees	-6045
ems	-6046
fil	-6047
fon	-6048
ini	-6049
ipl	-6050
itr	-6051
jus	-6052
lin	-6053
lub	-6054
ner	-6055
odd	-6056
que	-6057
roj	-6058
tag	-6059
▁hu	-6060
▁wi	-6061
King	-6062
Vide	-6063
arie	-6064
atin	-6065
ifor	-6066
isin	-6067
itar	-6068
onen	-6069
oret	-6070
rite	-6071
tion	-6072
vere	-6073
▁Gun	-6074
▁ICL	-6075
▁Los	-6076
▁Tre	-6077
▁Way	-6078
▁emb	-6079
antag	-6080
ingle	-6081
jects	-6082
mbigu	-6083
reced	-6084
regat	-6085
regul	-6086
renam	-6087
rence	-6088
reole	-6089
resum	-6090
ribes	-6091
ricus	-6092
riend	-6093
rimar	-6094
rimes	-6095
riven	-6096
roach	-6097
roken	-6098
rosci	-6099
(0	-6100
(2	-6101
25	-6102
34	-6103
63	-6104
97	-6105
AI	-6106
AS	-6107
At	-6108
Cu	-6109
De	-6110
Ev	-6111
Hi	-6112
JI	-6113
Jo	-6114
Lu	-6115
Re	-6116
St	-6117
Un	-6118
bl	-6119
de	-6120
du	-6121
fz	-6122
gs	-6123
ju	-6124
lN	-6125
mi	-6126
na	-6127
nk	-6128
oj	-6129
rc	-6130
rp	-6131
rs	-6132
ss	-6133
ta	-6134
tw	-6135
we	-6136
xy	-6137
-19	-6138
Des	-6139
Kin	-6140
Tor	-6141
ait	-6142
ams	-6143
any	-6144
cor	-6145
els	-6146
ene	-6147
esc	-6148
hus	-6149
inu	-6150
job	-6151
onv	-6152
uad	-6153
vat	-6154
vic	-6155
wer	-6156
ysi	-6157
zat	-6158
ōch	-6159
▁Ob	-6160
Dist	-6161
aceh	-6162
alit	-6163
cuit	-6164
fond	-6165
icus	-6166
lmer	-6167
mith	-6168
olic	-6169
resc	-6170
tent	-6171
xion	-6172
▁Der	-6173
▁Pre	-6174
▁Tas	-6175
achel	-6176
hence	-6177
omput	-6178
pient	-6179
roups	-6180
rovid	-6181
sland	-6182
stead	-6183
stein	-6184
suing	-6185
tated	-6186
thony	-6187
tomic	-6188
tsbur	-6189
ublis	-6190
ugust	-6191
uhari	-6192
uilli	-6193
ultin	-6194
umans	-6195
unced	-6196
undes	-6197
unior	-6198
unted	-6199
("	-6200
.3	-6201
69	-6202
Au	-6203
EC	-6204
IG	-6205
Id	-6206
MS	-6207
Pi	-6208
QR	-6209
RF	-6210
VI	-6211
Wi	-6212
ao	-6213
do	-6214
ei	-6215
fa	-6216
fo	-6217
kw	-6218
lk	-6219
lr	-6220
lt	-6221
lu	-6222
mn	-6223
nr	-6224
oh	-6225
rf	-6226
sk	-6227
sq	-6228
ws	-6229
ya	-6230
yo	-6231
ça	-6232
ło	-6233
–4	-6234
Ral	-6235
elg	-6236
eng	-6237
fin	-6238
iar	-6239
iat	-6240
ien	-6241
inb	-6242
kag	-6243
lid	-6244
lro	-6245
niv	-6246
odu	-6247
olv	-6248
omi	-6249
tak	-6250
unr	-6251
wiv	-6252
▁86	-6253
▁AC	-6254
▁dy	-6255
▁eq	-6256
▁ic	-6257
abat	-6258
anin	-6259
erst	-6260
esen	-6261
imil	-6262
indy	-6263
kill	-6264
mand	-6265
ocal	-6266
oman	-6267
reas	-6268
rese	-6269
utin	-6270
ympt	-6271
▁Bec	-6272
▁Ful	-6273
▁Mic	-6274
▁bor	-6275
▁wor	-6276
ented	-6277
idean	-6278
ucked	-6279
untry	-6280
uster	-6281
uxili	-6282
veral	-6283
veren	-6284
vides	-6285
views	-6286
witch	-6287
ylvan	-6288
ynerg	-6289
yping	-6290
zymes	-6291
▁(#15	-6292
▁(193	-6293
▁(197	-6294
▁(202	-6295
▁150,	-6296
▁1922	-6297
▁1926	-6298
▁1929	-6299
(#	-6300
.9	-6301
02	-6302
27	-6303
31	-6304
32	-6305
4%	-6306
4.	-6307
5)	-6308
56	-6309
6)	-6310
9)	-6311
AA	-6312
BA	-6313
BL	-6314
Bo	-6315
DA	-6316
Do	-6317
Es	-6318
Fe	-6319
Ki	-6320
NI	-6321
Ow	-6322
Se	-6323
fy	-6324
kh	-6325
me	-6326
zz	-6327
▁9	-6328
Cal	-6329
Don	-6330
Our	-6331
Tan	-6332
Win	-6333
ads	-6334
arc	-6335
ato	-6336
chi	-6337
cqu	-6338
eno	-6339
hia	-6340
hin	-6341
hor	-6342
isa	-6343
oft	-6344
ois	-6345
rap	-6346
rok	-6347
tic	-6348
▁Co	-6349
▁Do	-6350
▁Jo	-6351
▁cu	-6352
▁er	-6353
▁ow	-6354
738,	-6355
adem	-6356
chiv	-6357
erge	-6358
eric	-6359
erim	-6360
eval	-6361
ging	-6362
inst	-6363
king	-6364
perl	-6365
terp	-6366
unab	-6367
▁Alb	-6368
▁Nam	-6369
▁Ner	-6370
▁Ser	-6371
▁asy	-6372
▁nod	-6373
▁por	-6374
▁tel	-6375
▁wer	-6376
ardiz	-6377
earan	-6378
ening	-6379
erial	-6380
ident	-6381
organ	-6382
▁1919	-6383
▁1940	-6384
▁1945	-6385
▁1978	-6386
▁2004	-6387
▁2010	-6388
▁2013	-6389
▁2015	-6390
▁2025	-6391
▁7.4/	-6392
▁Abri	-6393
▁Adin	-6394
▁Adol	-6395
▁Apri	-6396
▁Arch	-6397
▁Barc	-6398
▁Bark	-6399
09	-6400
10	-6401
2.	-6402
3%	-6403
3.	-6404
4-	-6405
42	-6406
68	-6407
70	-6408
72	-6409
80	-6410
92	-6411
98	-6412
Ab	-6413
Ba	-6414
Bu	-6415
Em	-6416
If	-6417
Lo	-6418
QP	-6419
TR	-6420
da	-6421
dr	-6422
dt	-6423
gg	-6424
gy	-6425
hk	-6426
hl	-6427
iu	-6428
kl	-6429
lb	-6430
nK	-6431
nt	-6432
py	-6433
rh	-6434
tz	-6435
uf	-6436
yf	-6437
3).	-6438
60.	-6439
Lor	-6440
May	-6441
Pas	-6442
Pat	-6443
aig	-6444
cal	-6445
cis	-6446
ckg	-6447
err	-6448
gen	-6449
gis	-6450
hos	-6451
inc	-6452
jur	-6453
lom	-6454
nch	-6455
pat	-6456
pin	-6457
rad	-6458
rip	-6459
tle	-6460
win	-6461
xin	-6462
▁IB	-6463
▁mi	-6464
▁ou	-6465
▁wo	-6466
entc	-6467
hort	-6468
igit	-6469
ingr	-6470
ioin	-6471
late	-6472
oren	-6473
term	-6474
▁Adv	-6475
▁Kar	-6476
▁Lel	-6477
▁Son	-6478
▁som	-6479
▁wel	-6480
32,73	-6481
agate	-6482
arded	-6483
erent	-6484
outin	-6485
▁1997	-6486
▁Bonn	-6487
▁Brid	-6488
▁Calv	-6489
▁Cart	-6490
▁Char	-6491
▁Chem	-6492
▁Conc	-6493
▁Crit	-6494
▁Dece	-6495
▁Dhab	-6496
▁DisC	-6497
▁Eliz	-6498
▁Ener	-6499
Bi	-6500
Ce	-6501
Du	-6502
Ei	-6503
FU	-6504
Fl	-6505
Fu	-6506
Ge	-6507
Gl	-6508
IC	-6509
II	-6510
IJ	-6511
Ir	-6512
MD	-6513
Ne	-6514
Ni	-6515
Nu	-6516
Op	-6517
RA	-6518
Rh	-6519
Sy	-6520
Ty	-6521
UB	-6522
Wh	-6523
dw	-6524
eq	-6525
gm	-6526
nh	-6527
nj	-6528
sb	-6529
sn	-6530
tf	-6531
yT	-6532
ye	-6533
190	-6534
===	-6535
Bil	-6536
Bon	-6537
Gus	-6538
Jan	-6539
Lin	-6540
Lis	-6541
PQR	-6542
Par	-6543
Pin	-6544
Tat	-6545
Tom	-6546
atc	-6547
che	-6548
epp	-6549
erb	-6550
fic	-6551
icr	-6552
inp	-6553
isf	-6554
isi	-6555
oan	-6556
sor	-6557
tro	-6558
ues	-6559
uot	-6560
ved	-6561
▁NL	-6562
▁ta	-6563
anag	-6564
arth	-6565
cour	-6566
dens	-6567
eing	-6568
icat	-6569
imen	-6570
isod	-6571
oget	-6572
rict	-6573
trol	-6574
▁Wor	-6575
▁Zot	-6576
▁car	-6577
▁exe	-6578
▁tar	-6579
▁whe	-6580
istri	-6581
orpor	-6582
▁Donn	-6583
▁Engl	-6584
▁Epis	-6585
▁Eucl	-6586
▁Exam	-6587
▁Foob	-6588
▁Form	-6589
▁Fren	-6590
▁Glob	-6591
▁Gund	-6592
▁Hait	-6593
▁Hash	-6594
▁Heis	-6595
▁Hert	-6596
▁Hist	-6597
▁Josh	-6598
▁Jour	-6599
Be	-6600
EE	-6601
FT	-6602
Or	-6603
PV	-6604
ST	-6605
Si	-6606
Sw	-6607
WV	-6608
Ze	-6609
bt	-6610
cq	-6611
dN	-6612
dl	-6613
dm	-6614
hi	-6615
iO	-6616
iq	-6617
rb	-6618
ui	-6619
uv	-6620
wr	-6621
yd	-6622
zh	-6623
zy	-6624
2,7	-6625
Bor	-6626
Dic	-6627
Kar	-6628
ank	-6629
bin	-6630
bus	-6631
den	-6632
din	-6633
erc	-6634
ews	-6635
hey	-6636
icu	-6637
ief	-6638
inv	-6639
leg	-6640
min	-6641
onc	-6642
rid	-6643
tom	-6644
tur	-6645
ued	-6646
ung	-6647
vin	-6648
zer	-6649
▁28	-6650
▁Je	-6651
▁Ty	-6652
▁tu	-6653
amen	-6654
anes	-6655
aram	-6656
atow	-6657
edis	-6658
elat	-6659
eman	-6660
emph	-6661
ench	-6662
ethe	-6663
igen	-6664
ince	-6665
inic	-6666
lman	-6667
onal	-6668
orge	-6669
ortu	-6670
pply	-6671
▁Lop	-6672
▁Nul	-6673
▁dat	-6674
▁liv	-6675
▁mis	-6676
▁pri	-6677
▁sel	-6678
ceive	-6679
cture	-6680
obelP	-6681
tical	-6682
▁Koen	-6683
▁Lars	-6684
▁Line	-6685
▁Ling	-6686
▁Lisb	-6687
▁Modu	-6688
▁Mole	-6689
▁Naom	-6690
▁Oric	-6691
▁Pert	-6692
▁Phys	-6693
▁Prot	-6694
▁Pyth	-6695
▁Sang	-6696
▁Sapp	-6697
▁Seas	-6698
▁Sign	-6699
21	-6700
58	-6701
EK	-6702
Is	-6703
Ke	-6704
Pa	-6705
aJ	-6706
nv	-6707
sm	-6708
Cam	-6709
Ice	-6710
Las	-6711
Too	-6712
Yan	-6713
agu	-6714
cce	-6715
ceh	-6716
cep	-6717
dne	-6718
ece	-6719
hag	-6720
has	-6721
hee	-6722
heo	-6723
heu	-6724
hth	-6725
inf	-6726
inh	-6727
ivi	-6728
mag	-6729
mem	-6730
nce	-6731
oci	-6732
pli	-6733
rag	-6734
tit	-6735
uaR	-6736
uag	-6737
urn	-6738
var	-6739
von	-6740
xce	-6741
zin	-6742
▁Ca	-6743
▁OV	-6744
▁ae	-6745
▁ai	-6746
▁ha	-6747
4%),	-6748
agat	-6749
agic	-6750
cent	-6751
core	-6752
eden	-6753
entl	-6754
erag	-6755
erce	-6756
erry	-6757
inhe	-6758
ioor	-6759
mens	-6760
odor	-6761
omat	-6762
onat	-6763
once	-6764
orag	-6765
plin	-6766
rece	-6767
usag	-6768
▁Com	-6769
▁Pit	-6770
▁ext	-6771
▁iss	-6772
▁tag	-6773
▁wag	-6774
alect	-6775
anual	-6776
arent	-6777
awaii	-6778
easur	-6779
ental	-6780
entro	-6781
entur	-6782
obile	-6783
sment	-6784
uzhou	-6785
▁2002	-6786
▁Mach	-6787
▁Sout	-6788
▁Stat	-6789
▁Stev	-6790
▁Thei	-6791
▁Thes	-6792
▁Unic	-6793
▁Univ	-6794
▁Walk	-6795
▁Will	-6796
▁Yous	-6797
▁anno	-6798
▁anot	-6799
18	-6800
ED	-6801
cr	-6802
ib	-6803
72,	-6804
Cas	-6805
Res	-6806
cti	-6807
ctl	-6808
cto	-6809
ctr	-6810
ctu	-6811
cut	-6812
ery	-6813
esu	-6814
gon	-6815
iag	-6816
lso	-6817
lut	-6818
mul	-6819
nam	-6820
nct	-6821
onl	-6822
uth	-6823
uts	-6824
utt	-6825
utu	-6826
yal	-6827
yer	-6828
▁CS	-6829
▁Cr	-6830
▁Le	-6831
▁na	-6832
▁nu	-6833
ader	-6834
alen	-6835
arde	-6836
cted	-6837
ctic	-6838
emor	-6839
eriv	-6840
fact	-6841
hart	-6842
inct	-6843
ingR	-6844
othe	-6845
pace	-6846
rout	-6847
utat	-6848
uton	-6849
▁Cal	-6850
▁Can	-6851
▁Car	-6852
▁Cro	-6853
▁Cur	-6854
▁Des	-6855
▁Jap	-6856
▁Les	-6857
▁Loc	-6858
▁Pul	-6859
▁Rob	-6860
▁asp	-6861
▁beh	-6862
▁nat	-6863
▁nin	-6864
▁nom	-6865
▁nor	-6866
▁oft	-6867
▁squ	-6868
cting	-6869
teres	-6870
uling	-6871
▁2007	-6872
▁Camb	-6873
▁appl	-6874
▁arch	-6875
▁bott	-6876
▁brea	-6877
▁butt	-6878
▁cent	-6879
▁cert	-6880
▁cham	-6881
▁chan	-6882
▁chat	-6883
▁conv	-6884
▁cros	-6885
▁deci	-6886
▁dire	-6887
▁eigh	-6888
▁exce	-6889
▁extr	-6890
▁feed	-6891
▁foob	-6892
▁forw	-6893
▁fram	-6894
▁grap	-6895
▁help	-6896
▁hone	-6897
▁hous	-6898
▁inhe	-6899
hm	-6900
rn	-6901
uu	-6902
Ein	-6903
Get	-6904
Jam	-6905
Met	-6906
Zen	-6907
agr	-6908
amm	-6909
dam	-6910
dor	-6911
eis	-6912
eti	-6913
etr	-6914
ett	-6915
gat	-6916
get	-6917
iam	-6918
idg	-6919
ira	-6920
kil	-6921
ols	-6922
pet	-6923
rot	-6924
ska	-6925
ush	-6926
▁AB	-6927
▁EP	-6928
▁Ea	-6929
▁Ep	-6930
▁Ev	-6931
▁MI	-6932
▁Ma	-6933
▁Mu	-6934
▁NI	-6935
▁Ne	-6936
▁No	-6937
▁Nu	-6938
▁Wi	-6939
▁au	-6940
aigh	-6941
anam	-6942
curr	-6943
erve	-6944
etal	-6945
etar	-6946
etic	-6947
geom	-6948
oane	-6949
osel	-6950
ples	-6951
riet	-6952
ulti	-6953
uset	-6954
utom	-6955
▁Ach	-6956
▁Den	-6957
▁Ein	-6958
▁Eis	-6959
▁Ele	-6960
▁Mal	-6961
▁Mas	-6962
▁Men	-6963
▁Min	-6964
▁Mon	-6965
▁Mus	-6966
▁Nat	-6967
▁fys	-6968
▁nam	-6969
▁net	-6970
▁sam	-6971
▁sup	-6972
andex	-6973
blems	-6974
ernst	-6975
pport	-6976
ussed	-6977
▁Asso	-6978
▁insp	-6979
▁lamb	-6980
▁line	-6981
▁ling	-6982
▁meth	-6983
▁mole	-6984
▁mone	-6985
▁orig	-6986
▁outs	-6987
▁padm	-6988
▁peop	-6989
▁poss	-6990
▁priz	-6991
▁proc	-6992
▁proj	-6993
▁prop	-6994
▁prov	-6995
▁ques	-6996
▁reac	-6997
▁reas	-6998
▁scal	-6999
60	-7000
MI	-7001
NA	-7002
ni	-7003
197	-7004
Zam	-7005
ama	-7006
bot	-7007
dem	-7008
elp	-7009
emb	-7010
emm	-7011
emp	-7012
ham	-7013
iff	-7014
ins	-7015
irt	-7016
isp	-7017
nem	-7018
odo	-7019
sic	-7020
utp	-7021
vem	-7022
xem	-7023
yst	-7024
▁(#	-7025
▁(2	-7026
▁22	-7027
▁IM	-7028
▁Il	-7029
▁Is	-7030
▁Ko	-7031
▁MS	-7032
▁sa	-7033
▁sq	-7034
▁wa	-7035
PQRS	-7036
abet	-7037
ardw	-7038
avor	-7039
empt	-7040
gics	-7041
guit	-7042
hard	-7043
hics	-7044
icor	-7045
iden	-7046
ompo	-7047
pics	-7048
ping	-7049
sens	-7050
tend	-7051
thur	-7052
ucle	-7053
utst	-7054
ysic	-7055
▁All	-7056
▁Dal	-7057
▁Hoo	-7058
▁Lar	-7059
▁Mak	-7060
▁Mik	-7061
▁Sem	-7062
▁lam	-7063
▁rea	-7064
▁ref	-7065
▁rev	-7066
▁sto	-7067
ained	-7068
aming	-7069
ompan	-7070
ompar	-7071
ompet	-7072
ustav	-7073
ysics	-7074
▁Chap	-7075
▁Euro	-7076
▁Priz	-7077
▁regu	-7078
▁scor	-7079
▁sens	-7080
▁shar	-7081
▁slic	-7082
▁spee	-7083
▁stab	-7084
▁stan	-7085
▁stat	-7086
▁stra	-7087
▁symb	-7088
▁targ	-7089
▁thei	-7090
▁thes	-7091
▁thin	-7092
▁univ	-7093
▁usef	-7094
▁wagg	-7095
▁whal	-7096
▁whos	-7097
▁winn	-7098
▁xyzz	-7099
He	-7100
IO	-7101
SI	-7102
TV	-7103
az	-7104
rk	-7105
Giv	-7106
Gol	-7107
Jun	-7108
alf	-7109
anh	-7110
bet	-7111
div	-7112
eni	-7113
giv	-7114
iol	-7115
lol	-7116
nol	-7117
ola	-7118
old	-7119
oli	-7120
olk	-7121
olm	-7122
olo	-7123
olu	-7124
ool	-7125
oom	-7126
siv	-7127
tiv	-7128
tol	-7129
unk	-7130
vol	-7131
▁La	-7132
▁Li	-7133
▁Lo	-7134
▁hi	-7135
▁ho	-7136
Bard	-7137
Ling	-7138
Rock	-7139
alia	-7140
aliz	-7141
ardi	-7142
aryl	-7143
aten	-7144
ativ	-7145
come	-7146
ctiv	-7147
dard	-7148
entr	-7149
iley	-7150
ilit	-7151
itiv	-7152
ivat	-7153
ivis	-7154
oard	-7155
olis	-7156
olle	-7157
ompr	-7158
quis	-7159
rogr	-7160
roun	-7161
unds	-7162
unit	-7163
utiv	-7164
▁Hen	-7165
▁Her	-7166
▁Lin	-7167
▁Lor	-7168
▁Pol	-7169
▁att	-7170
▁bef	-7171
▁bin	-7172
▁col	-7173
▁dic	-7174
▁fiv	-7175
▁hon	-7176
▁kem	-7177
▁pol	-7178
inate	-7179
isted	-7180
lness	-7181
oping	-7182
owing	-7183
ptoms	-7184
resiz	-7185
utton	-7186
▁2003	-7187
▁four	-7188
▁hist	-7189
▁nois	-7190
Criter	-7191
HEMIST	-7192
abelNE	-7193
ackpro	-7194
ackson	-7195
actory	-7196
adelph	-7197
aduate	-7198
agging	-7199
33	-7200
FO	-7201
0,7	-7202
99,	-7203
Bar	-7204
Gar	-7205
Jar	-7206
Mic	-7207
adu	-7208
ann	-7209
ans	-7210
bst	-7211
cid	-7212
cob	-7213
eci	-7214
ein	-7215
hot	-7216
lhe	-7217
obe	-7218
owe	-7219
sel	-7220
ucl	-7221
unl	-7222
▁Fi	-7223
0–19	-7224
Priz	-7225
agen	-7226
ainn	-7227
akel	-7228
anst	-7229
cces	-7230
chem	-7231
cien	-7232
eces	-7233
emer	-7234
fect	-7235
ikun	-7236
imag	-7237
isci	-7238
obus	-7239
onst	-7240
stan	-7241
stit	-7242
ters	-7243
univ	-7244
▁Cat	-7245
▁Lap	-7246
▁Mad	-7247
▁Nob	-7248
▁alb	-7249
▁alg	-7250
▁als	-7251
▁alt	-7252
▁inf	-7253
▁mor	-7254
▁onl	-7255
▁pow	-7256
▁ret	-7257
▁usu	-7258
athem	-7259
cient	-7260
elona	-7261
entry	-7262
estin	-7263
guity	-7264
hemic	-7265
iable	-7266
istry	-7267
roces	-7268
sting	-7269
urces	-7270
urine	-7271
▁Poin	-7272
▁aler	-7273
▁alon	-7274
▁chem	-7275
▁conf	-7276
▁dipl	-7277
▁mach	-7278
▁prog	-7279
▁reci	-7280
▁usag	-7281
agrams	-7282
ahashi	-7283
alangu	-7284
allmer	-7285
alloen	-7286
alther	-7287
aluate	-7288
amenho	-7289
ameter	-7290
antics	-7291
anuals	-7292
anuary	-7293
apabil	-7294
apanes	-7295
aphics	-7296
aplace	-7297
ardeen	-7298
arkers	-7299
En	-7300
Mu	-7301
by	-7302
nc	-7303
ön	-7304
Bat	-7305
Fir	-7306
Hen	-7307
adr	-7308
bil	-7309
bul	-7310
ceb	-7311
cio	-7312
cle	-7313
edg	-7314
emy	-7315
hil	-7316
hir	-7317
ila	-7318
ils	-7319
ilt	-7320
inK	-7321
inm	-7322
isq	-7323
lor	-7324
mir	-7325
obi	-7326
sin	-7327
til	-7328
uil	-7329
uln	-7330
xil	-7331
▁RE	-7332
▁Rh	-7333
▁Ro	-7334
Yand	-7335
amil	-7336
anad	-7337
arad	-7338
herb	-7339
ilhe	-7340
ilol	-7341
ilor	-7342
irat	-7343
lace	-7344
olad	-7345
ordN	-7346
osed	-7347
owed	-7348
phys	-7349
sive	-7350
stal	-7351
tate	-7352
tein	-7353
tgen	-7354
urin	-7355
util	-7356
wing	-7357
▁Dic	-7358
▁Ral	-7359
▁cor	-7360
▁eig	-7361
▁fir	-7362
▁lit	-7363
▁ori	-7364
▁reg	-7365
▁wil	-7366
asure	-7367
enand	-7368
gical	-7369
hysic	-7370
icall	-7371
ommon	-7372
pical	-7373
sical	-7374
xical	-7375
ōchin	-7376
▁Dere	-7377
▁conj	-7378
▁prin	-7379
▁thre	-7380
aining	-7381
anical	-7382
arlies	-7383
arsell	-7384
arsing	-7385
ashing	-7386
asticG	-7387
ategor	-7388
atrick	-7389
attles	-7390
auling	-7391
ayback	-7392
bedded	-7393
cation	-7394
cializ	-7395
ciated	-7396
classn	-7397
compan	-7398
compos	-7399
Ha	-7400
Oc	-7401
Ph	-7402
Qa	-7403
Up	-7404
fr	-7405
ki	-7406
ln	-7407
sa	-7408
0.9	-7409
Big	-7410
Dur	-7411
Kan	-7412
Kim	-7413
Rat	-7414
aum	-7415
boo	-7416
cum	-7417
day	-7418
eig	-7419
ele	-7420
hum	-7421
lig	-7422
liz	-7423
mas	-7424
ont	-7425
ply	-7426
tan	-7427
tig	-7428
tum	-7429
umb	-7430
ume	-7431
vir	-7432
xpl	-7433
yth	-7434
▁Fl	-7435
▁Ho	-7436
731,	-7437
adig	-7438
ciat	-7439
esig	-7440
esum	-7441
etim	-7442
igat	-7443
ilay	-7444
imit	-7445
ivit	-7446
kers	-7447
olum	-7448
redi	-7449
ruct	-7450
terl	-7451
tert	-7452
tics	-7453
umer	-7454
vant	-7455
xter	-7456
▁Aus	-7457
▁Bor	-7458
▁Jak	-7459
▁Jar	-7460
▁Sod	-7461
▁beg	-7462
▁bey	-7463
▁cir	-7464
▁fig	-7465
alent	-7466
alter	-7467
aster	-7468
atter	-7469
ecess	-7470
etter	-7471
exist	-7472
ganiz	-7473
goriz	-7474
idual	-7475
ompon	-7476
ovies	-7477
polog	-7478
reter	-7479
terch	-7480
uzuru	-7481
▁Ster	-7482
▁modu	-7483
▁peri	-7484
▁resp	-7485
atical	-7486
comput	-7487
ctions	-7488
ctress	-7489
dation	-7490
dinary	-7491
eading	-7492
eaning	-7493
easure	-7494
eature	-7495
ectors	-7496
ectron	-7497
edding	-7498
elayed	-7499
Aw	-7500
NE	-7501
RY	-7502
Ro	-7503
So	-7504
tp	-7505
wh	-7506
yw	-7507
Ban	-7508
Him	-7509
Kee	-7510
Zot	-7511
ais	-7512
anc	-7513
atf	-7514
cab	-7515
cul	-7516
dim	-7517
hoo	-7518
imm	-7519
imu	-7520
jun	-7521
not	-7522
orl	-7523
ots	-7524
pic	-7525
pul	-7526
sid	-7527
tho	-7528
tim	-7529
tot	-7530
zaw	-7531
▁FT	-7532
▁Ja	-7533
▁Ke	-7534
▁Rö	-7535
▁ul	-7536
acks	-7537
dary	-7538
enot	-7539
guid	-7540
icul	-7541
idel	-7542
ider	-7543
imul	-7544
ithm	-7545
ligh	-7546
olul	-7547
olut	-7548
orid	-7549
pres	-7550
roid	-7551
urem	-7552
vers	-7553
yled	-7554
▁Bal	-7555
▁Ban	-7556
▁Bat	-7557
▁Bes	-7558
▁Bil	-7559
▁Bon	-7560
▁Cor	-7561
▁Jan	-7562
▁Not	-7563
▁Pub	-7564
▁Tim	-7565
▁Yuz	-7566
▁aer	-7567
▁aim	-7568
▁bot	-7569
▁cul	-7570
▁dim	-7571
▁eff	-7572
▁ful	-7573
▁hap	-7574
▁mul	-7575
▁tab	-7576
chine	-7577
gbahn	-7578
light	-7579
nical	-7580
obelp	-7581
otion	-7582
riset	-7583
ustin	-7584
uting	-7585
▁Lind	-7586
electr	-7587
emplif	-7588
enberg	-7589
enefit	-7590
eneral	-7591
enmark	-7592
enoted	-7593
entert	-7594
ential	-7595
enting	-7596
entist	-7597
entrop	-7598
erabil	-7599
Fr	-7600
aR	-7601
bj	-7602
nn	-7603
si	-7604
1).	-7605
Hab	-7606
How	-7607
Kid	-7608
Vid	-7609
Yos	-7610
abl	-7611
bab	-7612
eop	-7613
hof	-7614
how	-7615
iab	-7616
idu	-7617
ife	-7618
lab	-7619
nid	-7620
ood	-7621
owl	-7622
pab	-7623
pee	-7624
zai	-7625
łod	-7626
▁FO	-7627
▁Fr	-7628
▁Of	-7629
▁Zs	-7630
▁ef	-7631
▁ma	-7632
▁op	-7633
abas	-7634
aber	-7635
alan	-7636
cate	-7637
dres	-7638
ectr	-7639
erab	-7640
face	-7641
hant	-7642
icab	-7643
irab	-7644
ivel	-7645
nect	-7646
oder	-7647
odow	-7648
oepp	-7649
omen	-7650
orin	-7651
uant	-7652
vect	-7653
▁198	-7654
▁Bab	-7655
▁Fir	-7656
▁For	-7657
▁Gus	-7658
▁Oct	-7659
▁Pen	-7660
▁Pow	-7661
▁ear	-7662
▁eas	-7663
▁equ	-7664
▁org	-7665
▁pid	-7666
▁unt	-7667
antic	-7668
ctres	-7669
ected	-7670
ectiv	-7671
erant	-7672
grams	-7673
iding	-7674
itect	-7675
ogist	-7676
ometr	-7677
ource	-7678
ranad	-7679
ritis	-7680
strum	-7681
▁(190	-7682
▁Ashk	-7683
▁Ceci	-7684
▁LuaJ	-7685
▁Pres	-7686
▁Rhod	-7687
▁Sled	-7688
▁exam	-7689
ackage	-7690
ckward	-7691
ension	-7692
ercept	-7693
erform	-7694
ergies	-7695
erging	-7696
ersary	-7697
essing	-7698
essons	-7699
Ep	-7700
ea	-7701
je	-7702
mm	-7703
Bob	-7704
Dal	-7705
Ver	-7706
aps	-7707
arr	-7708
ckh	-7709
ckp	-7710
eck	-7711
edf	-7712
eos	-7713
eta	-7714
ids	-7715
imp	-7716
iss	-7717
itl	-7718
pos	-7719
qui	-7720
quu	-7721
ret	-7722
sof	-7723
tel	-7724
▁Dh	-7725
▁Wa	-7726
▁Wo	-7727
▁ot	-7728
CNLP	-7729
ackg	-7730
anck	-7731
aran	-7732
ards	-7733
ateg	-7734
char	-7735
ckag	-7736
cked	-7737
cker	-7738
ders	-7739
dged	-7740
ears	-7741
edly	-7742
empl	-7743
hate	-7744
iate	-7745
ides	-7746
ispl	-7747
long	-7748
luct	-7749
mark	-7750
obar	-7751
olos	-7752
osit	-7753
pact	-7754
pear	-7755
quar	-7756
quat	-7757
ques	-7758
quot	-7759
rate	-7760
roso	-7761
sour	-7762
tant	-7763
▁Cam	-7764
▁Dom	-7765
▁Jos	-7766
▁Lis	-7767
▁Rev	-7768
▁Wer	-7769
▁kee	-7770
ackag	-7771
ammal	-7772
eared	-7773
edent	-7774
esear	-7775
hical	-7776
ompos	-7777
osing	-7778
quant	-7779
reate	-7780
resul	-7781
rough	-7782
unres	-7783
▁SpaC	-7784
▁chun	-7785
cademy	-7786
cience	-7787
ersity	-7788
estion	-7789
etails	-7790
ethods	-7791
etwork	-7792
everal	-7793
ewives	-7794
ficial	-7795
format	-7796
gation	-7797
gative	-7798
geably	-7799
93	-7800
Af	-7801
OB	-7802
Pu	-7803
TM	-7804
mu	-7805
ou	-7806
ti	-7807
wt	-7808
xe	-7809
zu	-7810
ōc	-7811
32,	-7812
8),	-7813
Har	-7814
Pie	-7815
ali	-7816
dap	-7817
eak	-7818
gre	-7819
hap	-7820
ogr	-7821
sum	-7822
uro	-7823
▁HL	-7824
▁Ol	-7825
▁Op	-7826
▁Or	-7827
▁Ot	-7828
▁Ov	-7829
▁ke	-7830
akes	-7831
alal	-7832
apab	-7833
apor	-7834
ariz	-7835
caus	-7836
eniz	-7837
enti	-7838
ergr	-7839
eros	-7840
grap	-7841
herl	-7842
heur	-7843
jour	-7844
mber	-7845
nals	-7846
only	-7847
ords	-7848
orth	-7849
ours	-7850
ourt	-7851
russ	-7852
stgr	-7853
ully	-7854
▁But	-7855
▁Dre	-7856
▁Han	-7857
▁Har	-7858
▁Has	-7859
▁Net	-7860
▁Oly	-7861
▁end	-7862
▁gen	-7863
▁pin	-7864
▁sti	-7865
▁stu	-7866
▁sty	-7867
▁tap	-7868
▁whi	-7869
assif	-7870
eanst	-7871
eural	-7872
ingap	-7873
ither	-7874
ollow	-7875
ommun	-7876
pline	-7877
urnal	-7878
▁1998	-7879
▁Theo	-7880
▁grad	-7881
▁imag	-7882
▁symm	-7883
▁whic	-7884
edical	-7885
geomet	-7886
gregat	-7887
hereas	-7888
herent	-7889
holder	-7890
ichard	-7891
icroso	-7892
icular	-7893
idence	-7894
iently	-7895
igence	-7896
ighted	-7897
iginal	-7898
igital	-7899
6.	-7900
Ri	-7901
Ta	-7902
▁	-7903
e	-7904
a	-7905
i	-7906
t	-7907
n	-7908
o	-7909
s	-7910
r	-7911
c	-7912
l	-7913
h	-7914
d	-7915
u	-7916
m	-7917
g	-7918
p	-7919
f	-7920
y	-7921
b	-7922
,	-7923
w	-7924
=	-7925
.	-7926
v	-7927
1	-7928
k	-7929
P	-7930
S	-7931
T	-7932
2	-7933
L	-7934
M	-7935
A	-7936
0	-7937
N	-7938
C	-7939
9	-7940
E	-7941
z	-7942
I	-7943
x	-7944
(	-7945
)	-7946
R	-7947
-	-7948
"	-7949
B	-7950
F	-7951
O	-7952
J	-7953
W	-7954
D	-7955
H	-7956
3	-7957
q	-7958
5	-7959
:	-7960
K	-7961
4	-7962
8	-7963
j	-7964
7	-7965
'	-7966
6	-7967
G	-7968
U	-7969
V	-7970
–	-7971
Q	-7972
#	-7973
/	-7974
;	-7975
Y	-7976
Z	-7977
%	-7978
+	-7979
ł	-7980
—	-7981
§	-7982
ç	-7983
é	-7984
ö	-7985
ō	-7986
嘉	-7987
堂	-7988
川	-7989
珍	-7990
畑	-7991
福	-7992
要	-7993
邦	-7994
