<unk>	0
<s>	0
</s>	0
<pad>	0
<mask>	0
▁a	-0
in	-1
▁t	-2
he	-3
on	-4
er	-5
or	-6
at	-7
es	-8
an	-9
ic	-10
en	-11
is	-12
▁c	-13
▁s	-14
ed	-15
al	-16
▁o	-17
▁the	-18
ing	-19
▁of	-20
▁an	-21
ar	-22
it	-23
▁p	-24
▁b	-25
▁f	-26
re	-27
ion	-28
om	-29
▁m	-30
▁w	-31
==	-32
▁in	-33
▁and	-34
▁==	-35
le	-36
as	-37
ro	-38
▁d	-39
▁l	-40
ur	-41
ct	-42
▁T	-43
ent	-44
▁to	-45
us	-46
▁as	-47
ag	-48
ch	-49
▁S	-50
▁is	-51
ut	-52
▁A	-53
et	-54
ist	-55
▁n	-56
▁C	-57
ol	-58
ation	-59
ce	-60
am	-61
▁P	-62
▁E	-63
st	-64
omp	-65
el	-66
gu	-67
▁M	-68
▁th	-69
▁I	-70
ics	-71
▁for	-72
▁h	-73
▁us	-74
▁re	-75
angu	-76
ical	-77
id	-78
anguag	-79
ir	-80
▁The	-81
▁pro	-82
em	-83
▁(	-84
▁or	-85
im	-86
un	-87
▁2	-88
▁languag	-89
og	-90
ul	-91
um	-92
ith	-93
▁con	-94
▁L	-95
▁comp	-96
▁al	-97
ve	-98
ces	-99
▁20	-100
▁on	-101
▁R	-102
▁e	-103
▁be	-104
ig	-105
ab	-106
il	-107
▁J	-108
ant	-109
ter	-110
ad	-111
ot	-112
ys	-113
hem	-114
if	-115
od	-116
ry	-117
▁g	-118
▁st	-119
▁with	-120
NL	-121
ci	-122
▁B	-123
▁F	-124
NLP	-125
ine	-126
ap	-127
os	-128
qu	-129
ow	-130
▁"	-131
▁by	-132
olog	-133
ural	-134
▁comput	-135
▁language	-136
ean	-137
ord	-138
res	-139
▁that	-140
ks	-141
ri	-142
ect	-143
nal	-144
MNLP	-145
ence	-146
▁are	-147
so	-148
▁D	-149
▁O	-150
ate	-151
her	-152
ies	-153
hemist	-154
ly	-155
fer	-156
hys	-157
our	-158
▁bi	-159
▁EMNLP	-160
ac	-161
ver	-162
▁used	-163
oo	-164
pl	-165
ram	-166
atural	-167
hemistry	-168
pt	-169
ary	-170
hysics	-171
▁W	-172
ory	-173
▁su	-174
▁mean	-175
▁1	-176
▁N	-177
ial	-178
led	-179
uct	-180
▁In	-181
▁wh	-182
ology	-183
▁Physics	-184
ke	-185
oc	-186
▁H	-187
ain	-188
▁v	-189
ass	-190
▁Re	-191
▁qu	-192
ment	-193
▁meaning	-194
and	-195
▁was	-196
▁also	-197
ournal	-198
▁natural	-199
iv	-200
rom	-201
und	-202
▁It	-203
▁St	-204
ated	-205
▁from	-206
▁computer	-207
ge	-208
op	-209
▁K	-210
▁U	-211
▁de	-212
▁ex	-213
▁sy	-214
ates	-215
cess	-216
▁201	-217
ences	-218
ay	-219
cl	-220
iz	-221
pe	-222
th	-223
ud	-224
ack	-225
▁en	-226
antum	-227
ations	-228
▁Journal	-229
ew	-230
ech	-231
gan	-232
ive	-233
ore	-234
▁Un	-235
ther	-236
▁sci	-237
▁process	-238
▁G	-239
int	-240
ple	-241
ruct	-242
▁quantum	-243
▁languages	-244
ike	-245
ran	-246
▁19	-247
▁ap	-248
▁cl	-249
▁co	-250
▁it	-251
▁ob	-252
able	-253
igin	-254
ited	-255
orch	-256
ition	-257
ferences	-258
ak	-259
ard	-260
ens	-261
ers	-262
ich	-263
ong	-264
▁at	-265
ific	-266
▁can	-267
▁such	-268
▁word	-269
▁inter	-270
▁origin	-271
ost	-272
rit	-273
▁im	-274
▁se	-275
ject	-276
ular	-277
▁met	-278
ering	-279
▁which	-280
ia	-281
ms	-282
ace	-283
ach	-284
act	-285
ata	-286
cri	-287
ess	-288
gor	-289
ide	-290
ure	-291
gine	-292
gram	-293
oint	-294
▁202	-295
▁bas	-296
▁cre	-297
▁gen	-298
▁ser	-299
▁other	-300
▁their	-301
gineering	-302
▁References	-303
bl	-304
ee	-305
gh	-306
te	-307
up	-308
age	-309
ave	-310
ell	-311
ely	-312
ity	-313
ort	-314
ult	-315
▁le	-316
▁sh	-317
irst	-318
▁200	-319
▁int	-320
▁not	-321
▁rep	-322
emant	-323
resent	-324
▁class	-325
▁United	-326
▁program	-327
▁processing	-328
se	-329
▁k	-330
▁–	-331
ast	-332
ere	-333
est	-334
etw	-335
ome	-336
per	-337
rap	-338
▁An	-339
▁pl	-340
cept	-341
clud	-342
elis	-343
ions	-344
▁===	-345
▁com	-346
▁has	-347
▁mat	-348
▁res	-349
▁have	-350
▁like	-351
▁science	-352
▁Chemistry	-353
▁chemistry	-354
ob	-355
wo	-356
art	-357
erg	-358
ese	-359
now	-360
ole	-361
ork	-362
out	-363
red	-364
ugh	-365
▁Th	-366
ning	-367
stem	-368
▁mod	-369
▁spe	-370
▁two	-371
ating	-372
ganic	-373
stand	-374
▁cont	-375
▁pack	-376
▁were	-377
elisks	-378
istory	-379
▁first	-380
▁point	-381
▁States	-382
▁system	-383
▁engineering	-384
).	-385
ua	-386
ame	-387
ars	-388
ase	-389
lex	-390
ond	-391
vel	-392
▁Ex	-393
▁ar	-394
▁di	-395
apan	-396
arch	-397
comp	-398
echn	-399
ming	-400
uman	-401
unct	-402
▁See	-403
▁des	-404
▁dis	-405
▁foo	-406
▁use	-407
▁Comp	-408
▁been	-409
▁know	-410
gorith	-411
▁Japan	-412
▁includ	-413
▁semant	-414
▁biology	-415
▁algorith	-416
▁represent	-417
".	-418
0,	-419
br	-420
ie	-421
▁j	-422
hes	-423
hod	-424
low	-425
mal	-426
ons	-427
pro	-428
ten	-429
ual	-430
vid	-431
▁Al	-432
▁ac	-433
▁he	-434
ient	-435
omet	-436
plic	-437
ward	-438
▁its	-439
▁med	-440
▁und	-441
cular	-442
ordin	-443
▁data	-444
▁lear	-445
▁sing	-446
▁this	-447
struct	-448
▁funct	-449
▁human	-450
▁using	-451
ational	-452
▁struct	-453
standing	-454
▁concept	-455
▁learning	-456
▁programming	-457
ex	-458
ph	-459
ue	-460
ym	-461
are	-462
ari	-463
ark	-464
emb	-465
ert	-466
ied	-467
oor	-468
ous	-469
▁Ch	-470
▁ad	-471
▁ch	-472
▁fi	-473
▁ne	-474
▁ro	-475
▁sp	-476
▁tr	-477
▁un	-478
crib	-479
ingu	-480
inks	-481
rans	-482
raph	-483
▁Lua	-484
▁Mod	-485
▁but	-486
▁pos	-487
▁rel	-488
▁sub	-489
alled	-490
hemat	-491
ledge	-492
velop	-493
▁This	-494
▁anal	-495
▁cons	-496
▁show	-497
▁thro	-498
ternal	-499
▁links	-500
▁torch	-501
ference	-502
▁object	-503
▁series	-504
▁coordin	-505
▁created	-506
▁develop	-507
▁External	-508
erstanding	-509
▁computing	-510
▁representation	-511
1,	-512
2,	-513
NA	-514
OO	-515
mb	-516
ov	-517
▁3	-518
ane	-519
ble	-520
fic	-521
ice	-522
ict	-523
iew	-524
igh	-525
ign	-526
ild	-527
ind	-528
iro	-529
mat	-530
mer	-531
ors	-532
ose	-533
pen	-534
rad	-535
ubl	-536
▁AI	-537
▁Ap	-538
▁As	-539
▁En	-540
▁ab	-541
▁ph	-542
▁pr	-543
adem	-544
duct	-545
hods	-546
ures	-547
▁any	-548
▁ent	-549
▁par	-550
▁sec	-551
▁tas	-552
▁ter	-553
▁whe	-554
ative	-555
riter	-556
tific	-557
▁comm	-558
▁diag	-559
▁dist	-560
▁into	-561
▁netw	-562
▁rele	-563
▁they	-564
achine	-565
▁Their	-566
▁Torch	-567
▁based	-568
▁imple	-569
▁trans	-570
entific	-571
inguist	-572
osition	-573
▁Comput	-574
▁called	-575
▁single	-576
olecular	-577
structed	-578
tificial	-579
▁complex	-580
▁describ	-581
▁through	-582
▁mathemat	-583
▁implement	-584
▁knowledge	-585
▁understanding	-586
()	-587
00	-588
6,	-589
8,	-590
PL	-591
aw	-592
ax	-593
eb	-594
ft	-595
hi	-596
uc	-597
▁V	-598
▁Z	-599
ail	-600
bar	-601
eat	-602
for	-603
hed	-604
ife	-605
ill	-606
ime	-607
ire	-608
man	-609
ook	-610
rol	-611
ron	-612
ton	-613
▁Ac	-614
▁bu	-615
▁no	-616
▁sc	-617
▁so	-618
▁ty	-619
abor	-620
ages	-621
ally	-622
ance	-623
imes	-624
ines	-625
ized	-626
ound	-627
pect	-628
port	-629
roup	-630
ules	-631
ysis	-632
▁199	-633
▁Dis	-634
▁RNA	-635
▁ass	-636
▁ele	-637
▁fol	-638
▁one	-639
▁per	-640
cript	-641
eries	-642
iroid	-643
ively	-644
▁Chin	-645
▁exam	-646
▁life	-647
▁more	-648
▁mult	-649
▁song	-650
▁vari	-651
ademic	-652
ically	-653
rolled	-654
▁Inter	-655
▁These	-656
▁graph	-657
▁often	-658
▁organ	-659
▁there	-660
ization	-661
▁follow	-662
▁provid	-663
▁second	-664
▁theory	-665
ological	-666
oorganic	-667
▁history	-668
▁machine	-669
▁methods	-670
▁systems	-671
▁concepts	-672
▁function	-673
▁packages	-674
▁semantic	-675
▁algorithm	-676
▁classical	-677
▁molecular	-678
▁constructed	-679
#1	-680
),	-681
AM	-682
IT	-683
SE	-684
co	-685
ec	-686
ll	-687
lo	-688
su	-689
yl	-690
yn	-691
▁Q	-692
▁Y	-693
PLE	-694
any	-695
ays	-696
but	-697
een	-698
eld	-699
ile	-700
ins	-701
ish	-702
ite	-703
les	-704
ode	-705
ott	-706
str	-707
udy	-708
uit	-709
ull	-710
urr	-711
ust	-712
van	-713
▁Ob	-714
▁Py	-715
▁ax	-716
▁do	-717
▁ed	-718
cord	-719
etic	-720
ican	-721
icro	-722
ight	-723
ined	-724
like	-725
mbol	-726
ples	-727
vect	-728
vers	-729
view	-730
▁Con	-731
▁Foo	-732
▁Med	-733
▁Met	-734
▁Pro	-735
▁Rep	-736
▁Sci	-737
▁all	-738
▁cir	-739
▁due	-740
▁pre	-741
▁sim	-742
▁sol	-743
arson	-744
class	-745
icine	-746
ified	-747
round	-748
ument	-749
▁Amer	-750
▁appe	-751
▁betw	-752
▁bioc	-753
▁fram	-754
▁them	-755
▁uses	-756
▁well	-757
ficial	-758
▁about	-759
▁appro	-760
▁build	-761
▁field	-762
▁group	-763
▁prote	-764
▁space	-765
▁speci	-766
▁study	-767
▁tasks	-768
▁theor	-769
▁train	-770
▁where	-771
▁words	-772
anguage	-773
▁Larson	-774
▁applic	-775
▁decomp	-776
▁symbol	-777
▁transl	-778
national	-779
riterion	-780
▁Natural	-781
▁between	-782
▁consist	-783
▁example	-784
▁package	-785
▁subject	-786
echnology	-787
inguistic	-788
▁Japanese	-789
▁analysis	-790
▁obelisks	-791
▁provides	-792
▁artificial	-793
▁bioorganic	-794
▁linguistic	-795
▁scientific	-796
▁coordinates	-797
▁implemented	-798
▁biochemistry	-799
▁decomposition	-800
",	-801
3,	-802
5,	-803
50	-804
7,	-805
CL	-806
LC	-807
MR	-808
ef	-809
sc	-810
ta	-811
ts	-812
ux	-813
wn	-814
xt	-815
▁i	-816
▁r	-817
▁y	-818
FOO	-819
MRC	-820
ale	-821
anu	-822
arc	-823
bum	-824
ded	-825
eas	-826
ebs	-827
ern	-828
foo	-829
gul	-830
ian	-831
ibr	-832
idg	-833
ken	-834
ony	-835
orn	-836
oth	-837
ric	-838
rie	-839
rix	-840
ule	-841
urp	-842
uss	-843
ven	-844
wit	-845
▁Ad	-846
▁Dr	-847
▁Id	-848
▁Ph	-849
▁em	-850
▁id	-851
▁up	-852
ased	-853
blin	-854
ible	-855
ides	-856
ired	-857
ogen	-858
omin	-859
orks	-860
ough	-861
ress	-862
soci	-863
text	-864
uate	-865
usic	-866
ware	-867
ying	-868
▁197	-869
▁MIT	-870
▁Nov	-871
▁SAM	-872
▁Slo	-873
▁aut	-874
▁col	-875
▁doc	-876
▁had	-877
▁her	-878
▁ind	-879
▁phr	-880
▁pol	-881
▁rod	-882
▁set	-883
▁str	-884
▁tak	-885
▁top	-886
acter	-887
echan	-888
ember	-889
ensor	-890
ently	-891
erson	-892
etics	-893
ework	-894
ished	-895
ities	-896
itive	-897
ivers	-898
other	-899
ribut	-900
ublic	-901
uring	-902
▁2024	-903
▁Brie	-904
▁Cate	-905
▁Janu	-906
▁Less	-907
▁Rese	-908
▁They	-909
▁Zott	-910
▁back	-911
▁both	-912
▁comb	-913
▁core	-914
▁crit	-915
▁each	-916
▁form	-917
▁host	-918
▁issu	-919
▁libr	-920
▁name	-921
▁open	-922
▁over	-923
▁part	-924
▁pres	-925
▁sequ	-926
▁swit	-927
▁term	-928
▁than	-929
▁user	-930
▁vect	-931
▁webs	-932
amples	-933
etical	-934
iction	-935
▁March	-936
▁Oblin	-937
▁basic	-938
▁being	-939
▁diagn	-940
▁found	-941
▁gener	-942
▁model	-943
▁somet	-944
▁techn	-945
▁these	-946
radient	-947
▁SAMPLE	-948
▁Sloane	-949
▁Tensor	-950
▁formal	-951
▁interf	-952
▁mechan	-953
▁neural	-954
▁review	-955
▁serial	-956
▁viroid	-957
▁History	-958
▁January	-959
▁Lessons	-960
▁Medical	-961
▁include	-962
▁library	-963
▁medical	-964
▁network	-965
▁organic	-966
▁product	-967
▁special	-968
▁website	-969
▁Computer	-970
▁Language	-971
▁Obelisks	-972
▁Republic	-973
▁Research	-974
▁document	-975
▁medicine	-976
▁positive	-977
▁programs	-978
▁released	-979
▁symbolic	-980
▁computers	-981
▁framework	-982
▁processes	-983
▁relations	-984
▁secondary	-985
▁algorithms	-986
▁biological	-987
▁conference	-988
▁controlled	-989
▁structures	-990
▁mathematical	-991
-1	-992
."	-993
9,	-994
AR	-995
Co	-996
IS	-997
bi	-998
ep	-999
ho	-1000
ix	-1001
ns	-1002
nt	-1003
pr	-1004
to	-1005
tr	-1006
ty	-1007
ub	-1008
yz	-1009
▁'	-1010
▁x	-1011
BAR	-1012
VLC	-1013
ada	-1014
ade	-1015
air	-1016
ake	-1017
alk	-1018
als	-1019
amp	-1020
ana	-1021
app	-1022
arl	-1023
ath	-1024
aus	-1025
cog	-1026
cre	-1027
cur	-1028
def	-1029
der	-1030
eth	-1031
ext	-1032
ful	-1033
hen	-1034
hip	-1035
ili	-1036
ism	-1037
liz	-1038
med	-1039
ock	-1040
one	-1041
oss	-1042
own	-1043
pis	-1044
pre	-1045
put	-1046
ree	-1047
ses	-1048
uch	-1049
uld	-1050
vin	-1051
vis	-1052
vol	-1053
zym	-1054
▁#1	-1055
▁Ar	-1056
▁Be	-1057
▁Br	-1058
▁Cl	-1059
▁Em	-1060
▁Es	-1061
▁Eu	-1062
▁Pr	-1063
▁Sh	-1064
▁TV	-1065
▁Wh	-1066
▁ag	-1067
▁av	-1068
▁cy	-1069
▁ef	-1070
▁ge	-1071
▁if	-1072
▁pe	-1073
abil	-1074
aces	-1075
adel	-1076
ains	-1077
alth	-1078
amed	-1079
ames	-1080
amet	-1081
anto	-1082
ared	-1083
ater	-1084
ause	-1085
awab	-1086
ayer	-1087
cent	-1088
ches	-1089
cipl	-1090
cuit	-1091
ding	-1092
emon	-1093
enig	-1094
enns	-1095
ense	-1096
ents	-1097
fect	-1098
fore	-1099
fter	-1100
hing	-1101
idea	-1102
ilar	-1103
inct	-1104
inis	-1105
ital	-1106
ived	-1107
land	-1108
ling	-1109
merg	-1110
nect	-1111
ocus	-1112
ogic	-1113
oice	-1114
oken	-1115
omic	-1116
orea	-1117
otes	-1118
pain	-1119
rapy	-1120
rect	-1121
sect	-1122
side	-1123
soft	-1124
thon	-1125
ucle	-1126
unic	-1127
▁And	-1128
▁Col	-1129
▁FOO	-1130
▁For	-1131
▁Ste	-1132
▁att	-1133
▁aux	-1134
▁bio	-1135
▁det	-1136
▁dif	-1137
▁div	-1138
▁emb	-1139
▁mak	-1140
▁mar	-1141
▁may	-1142
▁new	-1143
▁num	-1144
▁opt	-1145
▁out	-1146
▁own	-1147
▁pop	-1148
▁ran	-1149
▁say	-1150
▁sto	-1151
▁tit	-1152
▁typ	-1153
▁voc	-1154
abeth	-1155
aches	-1156
ading	-1157
akers	-1158
arker	-1159
atist	-1160
atory	-1161
ature	-1162
cover	-1163
ctron	-1164
ellig	-1165
imens	-1166
inary	-1167
inear	-1168
istor	-1169
labor	-1170
plied	-1171
print	-1172
sible	-1173
vania	-1174
▁Eliz	-1175
▁Fran	-1176
▁Inst	-1177
▁King	-1178
▁Mean	-1179
▁Phil	-1180
▁Sing	-1181
▁Sony	-1182
▁TMRC	-1183
▁When	-1184
▁axis	-1185
▁bind	-1186
▁care	-1187
▁cell	-1188
▁coun	-1189
▁cour	-1190
▁curr	-1191
▁fact	-1192
▁feat	-1193
▁gram	-1194
▁idea	-1195
▁list	-1196
▁most	-1197
▁only	-1198
▁oper	-1199
▁pass	-1200
▁path	-1201
▁pred	-1202
▁rese	-1203
▁sign	-1204
▁soft	-1205
▁some	-1206
▁synt	-1207
▁time	-1208
▁type	-1209
▁what	-1210
▁work	-1211
ennsyl	-1212
ertain	-1213
ferent	-1214
iliary	-1215
ionist	-1216
matics	-1217
nition	-1218
ostics	-1219
tation	-1220
▁1996,	-1221
▁2010,	-1222
▁2011,	-1223
▁Apple	-1224
▁China	-1225
▁DisCo	-1226
▁Esper	-1227
▁Kawab	-1228
▁Korea	-1229
▁Metal	-1230
▁Micro	-1231
▁Music	-1232
▁Notes	-1233
▁clock	-1234
▁could	-1235
▁entry	-1236
▁focus	-1237
▁forms	-1238
▁ident	-1239
▁infor	-1240
▁known	-1241
▁labor	-1242
▁metat	-1243
▁multi	-1244
▁polar	-1245
▁quest	-1246
▁regul	-1247
▁scram	-1248
▁solve	-1249
▁table	-1250
▁taken	-1251
▁terms	-1252
▁those	-1253
ability	-1254
acteria	-1255
atively	-1256
defined	-1257
emantic	-1258
essment	-1259
portant	-1260
raduate	-1261
vidence	-1262
▁Module	-1263
▁Python	-1264
▁Series	-1265
▁aspect	-1266
▁common	-1267
▁create	-1268
▁direct	-1269
▁foobar	-1270
▁genome	-1271
▁geomet	-1272
▁health	-1273
▁histor	-1274
▁issues	-1275
▁matrix	-1276
▁notion	-1277
▁person	-1278
▁phrase	-1279
▁proble	-1280
▁spoken	-1281
iversity	-1282
▁Categor	-1283
▁Meaning	-1284
▁Modules	-1285
▁Pennsyl	-1286
▁Science	-1287
▁circuit	-1288
▁courses	-1289
▁critics	-1290
▁diagram	-1291
▁discipl	-1292
▁element	-1293
▁genetic	-1294
▁journal	-1295
▁modules	-1296
▁paramet	-1297
▁related	-1298
▁release	-1299
▁respect	-1300
▁reviews	-1301
▁samples	-1302
▁therapy	-1303
elligence	-1304
plication	-1305
▁Academic	-1306
▁American	-1307
▁Kawabata	-1308
▁November	-1309
▁Semantic	-1310
▁academic	-1311
▁bacteria	-1312
▁collabor	-1313
▁describe	-1314
▁distinct	-1315
▁gradient	-1316
▁interpre	-1317
▁networks	-1318
▁official	-1319
▁possible	-1320
▁preprint	-1321
▁software	-1322
▁speakers	-1323
▁subjects	-1324
▁switches	-1325
▁variable	-1326
nectionist	-1327
▁Elizabeth	-1328
▁Esperanto	-1329
▁Microsoft	-1330
▁auxiliary	-1331
▁different	-1332
▁following	-1333
▁functions	-1334
▁including	-1335
▁interface	-1336
▁mechanics	-1337
▁pathology	-1338
▁reference	-1339
▁semantics	-1340
▁sequences	-1341
▁structure	-1342
▁Technology	-1343
▁University	-1344
▁approaches	-1345
▁assessment	-1346
▁coordinate	-1347
▁laboratory	-1348
▁serialized	-1349
▁Engineering	-1350
▁development	-1351
▁diagnostics	-1352
▁mathematics	-1353
▁theoretical	-1354
▁Pennsylvania	-1355
▁applications	-1356
▁intelligence	-1357
▁documentation	-1358
▁international	-1359
,"	-1360
-2	-1361
.)	-1362
..	-1363
0)	-1364
4,	-1365
7.	-1366
8)	-1367
BM	-1368
FC	-1369
OP	-1370
PQ	-1371
RS	-1372
SD	-1373
Th	-1374
VA	-1375
ah	-1376
ai	-1377
au	-1378
av	-1379
gl	-1380
go	-1381
ik	-1382
ja	-1383
ld	-1384
lp	-1385
ne	-1386
ru	-1387
sw	-1388
ug	-1389
uo	-1390
uz	-1391
▁-	-1392
▁4	-1393
▁6	-1394
▁[	-1395
▁z	-1396
000	-1397
ACL	-1398
Cat	-1399
ISQ	-1400
RST	-1401
Sym	-1402
ait	-1403
aks	-1404
all	-1405
ann	-1406
aom	-1407
arg	-1408
ask	-1409
atb	-1410
att	-1411
ber	-1412
bra	-1413
bur	-1414
ear	-1415
ele	-1416
elf	-1417
end	-1418
eng	-1419
erm	-1420
ero	-1421
ets	-1422
gen	-1423
gle	-1424
iap	-1425
ica	-1426
igu	-1427
ils	-1428
ily	-1429
ink	-1430
iod	-1431
iqu	-1432
ise	-1433
key	-1434
lel	-1435
ley	-1436
lob	-1437
lor	-1438
met	-1439
nce	-1440
net	-1441
omm	-1442
oms	-1443
orp	-1444
ove	-1445
owe	-1446
pag	-1447
ped	-1448
ral	-1449
ren	-1450
ros	-1451
ted	-1452
uce	-1453
uck	-1454
uni	-1455
ury	-1456
ute	-1457
val	-1458
▁3,	-1459
▁Bi	-1460
▁Co	-1461
▁Cy	-1462
▁Fo	-1463
▁Gu	-1464
▁Is	-1465
▁Ke	-1466
▁Ko	-1467
▁Of	-1468
▁Qu	-1469
▁Sm	-1470
▁Up	-1471
▁gu	-1472
▁lo	-1473
▁mn	-1474
▁nn	-1475
▁oc	-1476
▁sk	-1477
▁sl	-1478
▁ut	-1479
▁we	-1480
0,0)	-1481
abel	-1482
ably	-1483
abul	-1484
aceb	-1485
ails	-1486
ange	-1487
anie	-1488
aomi	-1489
arge	-1490
aris	-1491
ason	-1492
atic	-1493
brid	-1494
bums	-1495
cern	-1496
chit	-1497
clid	-1498
curs	-1499
data	-1500
ecut	-1501
empt	-1502
ered	-1503
ergy	-1504
ewis	-1505
gory	-1506
hors	-1507
ials	-1508
ided	-1509
impl	-1510
ings	-1511
ious	-1512
ised	-1513
isms	-1514
iter	-1515
itro	-1516
iven	-1517
ives	-1518
less	-1519
lete	-1520
lows	-1521
ness	-1522
olid	-1523
omas	-1524
ople	-1525
orld	-1526
osed	-1527
oted	-1528
outh	-1529
over	-1530
phia	-1531
plif	-1532
purp	-1533
rast	-1534
ream	-1535
rick	-1536
ried	-1537
tain	-1538
that	-1539
tons	-1540
uals	-1541
unta	-1542
uter	-1543
vent	-1544
verb	-1545
ynam	-1546
yzed	-1547
▁(#1	-1548
▁196	-1549
▁22,	-1550
▁Aja	-1551
▁Bar	-1552
▁CSE	-1553
▁Cre	-1554
▁Des	-1555
▁Ell	-1556
▁Har	-1557
▁Hol	-1558
▁IBM	-1559
▁IOP	-1560
▁Kan	-1561
▁Lat	-1562
▁Lim	-1563
▁Mat	-1564
▁Mob	-1565
▁Non	-1566
▁OPQ	-1567
▁OVA	-1568
▁Pat	-1569
▁PyT	-1570
▁RFC	-1571
▁Six	-1572
▁Und	-1573
▁Wak	-1574
▁act	-1575
▁amb	-1576
▁ann	-1577
▁aud	-1578
▁bar	-1579
▁bec	-1580
▁bre	-1581
▁dat	-1582
▁dig	-1583
▁duo	-1584
▁exp	-1585
▁fam	-1586
▁job	-1587
▁loc	-1588
▁man	-1589
▁mov	-1590
▁neg	-1591
▁pur	-1592
▁ray	-1593
▁red	-1594
▁rem	-1595
▁she	-1596
▁sup	-1597
▁sur	-1598
▁tax	-1599
▁who	-1600
▁wid	-1601
EMNLP	-1602
Sympt	-1603
ables	-1604
ached	-1605
alker	-1606
allel	-1607
anada	-1608
apore	-1609
artes	-1610
astic	-1611
burgh	-1612
ether	-1613
gebra	-1614
gener	-1615
glish	-1616
hesis	-1617
icted	-1618
idges	-1619
ilson	-1620
imals	-1621
irect	-1622
itial	-1623
itute	-1624
matic	-1625
nucle	-1626
ourth	-1627
pired	-1628
plain	-1629
ports	-1630
scale	-1631
ually	-1632
undam	-1633
wards	-1634
zymes	-1635
▁1950	-1636
▁2023	-1637
▁Anth	-1638
▁Aust	-1639
▁Beau	-1640
▁Best	-1641
▁Bill	-1642
▁Cana	-1643
▁Comm	-1644
▁Cont	-1645
▁Corp	-1646
▁Dist	-1647
▁Evan	-1648
▁Hait	-1649
▁Hong	-1650
▁Howe	-1651
▁Kong	-1652
▁Last	-1653
▁Mann	-1654
▁Many	-1655
▁Meas	-1656
▁Most	-1657
▁Oper	-1658
▁Park	-1659
▁Past	-1660
▁Pine	-1661
▁Pull	-1662
▁Shoo	-1663
▁Some	-1664
▁Suit	-1665
▁Suss	-1666
▁Tech	-1667
▁What	-1668
▁Word	-1669
▁acqu	-1670
▁adap	-1671
▁answ	-1672
▁aver	-1673
▁axes	-1674
▁best	-1675
▁born	-1676
▁cate	-1677
▁cook	-1678
▁cred	-1679
▁deep	-1680
▁does	-1681
▁door	-1682
▁down	-1683
▁earl	-1684
▁edge	-1685
▁epis	-1686
▁evol	-1687
▁flex	-1688
▁gene	-1689
▁hack	-1690
▁less	-1691
▁long	-1692
▁made	-1693
▁make	-1694
▁many	-1695
▁mill	-1696
▁much	-1697
▁need	-1698
▁node	-1699
▁pair	-1700
▁phyl	-1701
▁phys	-1702
▁port	-1703
▁prim	-1704
▁publ	-1705
▁read	-1706
▁rece	-1707
▁requ	-1708
▁room	-1709
▁same	-1710
▁solo	-1711
▁sour	-1712
▁stop	-1713
▁task	-1714
▁text	-1715
▁thus	-1716
▁true	-1717
▁util	-1718
▁view	-1719
▁when	-1720
▁wide	-1721
▁writ	-1722
▁year	-1723
▁zero	-1724
andard	-1725
arison	-1726
cludes	-1727
ecture	-1728
elevis	-1729
emonic	-1730
entist	-1731
erical	-1732
ferred	-1733
iation	-1734
icides	-1735
icular	-1736
idered	-1737
ifying	-1738
ington	-1739
mation	-1740
merged	-1741
phanie	-1742
propag	-1743
roduct	-1744
▁2001,	-1745
▁2008,	-1746
▁2021,	-1747
▁2022,	-1748
▁After	-1749
▁Alice	-1750
▁Domin	-1751
▁Faceb	-1752
▁First	-1753
▁Idiap	-1754
▁James	-1755
▁Kevin	-1756
▁Lewis	-1757
▁Naomi	-1758
▁Other	-1759
▁Point	-1760
▁Punta	-1761
▁Simpl	-1762
▁Solid	-1763
▁Spain	-1764
▁State	-1765
▁agent	-1766
▁along	-1767
▁anime	-1768
▁avail	-1769
▁basis	-1770
▁began	-1771
▁bioin	-1772
▁dance	-1773
▁depen	-1774
▁dynam	-1775
▁effic	-1776
▁embed	-1777
▁emerg	-1778
▁gramm	-1779
▁guide	-1780
▁hence	-1781
▁image	-1782
▁input	-1783
▁logic	-1784
▁makes	-1785
▁metal	-1786
▁micro	-1787
▁named	-1788
▁novel	-1789
▁optim	-1790
▁order	-1791
▁place	-1792
▁plane	-1793
▁range	-1794
▁recog	-1795
▁serve	-1796
▁sever	-1797
▁shown	-1798
▁state	-1799
▁stool	-1800
▁theme	-1801
▁think	-1802
▁three	-1803
▁vitro	-1804
▁whose	-1805
abulary	-1806
ception	-1807
chastic	-1808
classes	-1809
clidean	-1810
cording	-1811
etition	-1812
hemical	-1813
nucleot	-1814
plifies	-1815
purpose	-1816
riteria	-1817
ulation	-1818
urement	-1819
▁Associ	-1820
▁Cartes	-1821
▁Direct	-1822
▁Formal	-1823
▁Gundam	-1824
▁Holman	-1825
▁Island	-1826
▁Kaname	-1827
▁Koenig	-1828
▁Mobile	-1829
▁OPQRST	-1830
▁Record	-1831
▁Thomas	-1832
▁Wakely	-1833
▁Walker	-1834
▁Wilson	-1835
▁appear	-1836
▁archit	-1837
▁around	-1838
▁associ	-1839
▁breaks	-1840
▁button	-1841
▁choice	-1842
▁combin	-1843
▁conven	-1844
▁creole	-1845
▁determ	-1846
▁during	-1847
▁enough	-1848
▁entire	-1849
▁execut	-1850
▁fourth	-1851
▁itself	-1852
▁linear	-1853
▁listed	-1854
▁marker	-1855
▁native	-1856
▁nature	-1857
▁others	-1858
▁people	-1859
▁places	-1860
▁player	-1861
▁primes	-1862
▁rating	-1863
▁result	-1864
▁states	-1865
▁string	-1866
▁titled	-1867
▁topics	-1868
▁vector	-1869
▁weight	-1870
▁widely	-1871
Symptoms	-1872
adelphia	-1873
atistics	-1874
computer	-1875
ctronics	-1876
izations	-1877
ogenetic	-1878
ometimes	-1879
ribution	-1880
standard	-1881
▁America	-1882
▁Another	-1883
▁Applied	-1884
▁Bridges	-1885
▁Chinese	-1886
▁Diction	-1887
▁English	-1888
▁However	-1889
▁Limited	-1890
▁Patrick	-1891
▁Process	-1892
▁Pullman	-1893
▁PyTorch	-1894
▁Quantum	-1895
▁Sussman	-1896
▁algebra	-1897
▁animals	-1898
▁another	-1899
▁appears	-1900
▁aspects	-1901
▁attempt	-1902
▁authors	-1903
▁average	-1904
▁buttons	-1905
▁chemist	-1906
▁concern	-1907
▁contain	-1908
▁context	-1909
▁cooking	-1910
▁counter	-1911
▁digital	-1912
▁edition	-1913
▁episode	-1914
▁explain	-1915
▁follows	-1916
▁forward	-1917
▁general	-1918
▁hosting	-1919
▁initial	-1920
▁located	-1921
▁million	-1922
▁modular	-1923
▁objects	-1924
▁opening	-1925
▁passing	-1926
▁percent	-1927
▁problem	-1928
▁protein	-1929
▁reached	-1930
▁researc	-1931
▁similar	-1932
▁usually	-1933
▁vectors	-1934
elevision	-1935
ification	-1936
iniseries	-1937
unication	-1938
▁DisCoCat	-1939
▁Facebook	-1940
▁Internet	-1941
▁Linguist	-1942
▁Official	-1943
▁analyzed	-1944
▁backward	-1945
▁building	-1946
▁circuits	-1947
▁circular	-1948
▁combines	-1949
▁consists	-1950
▁contrast	-1951
▁diagrams	-1952
▁discover	-1953
▁elements	-1954
▁evidence	-1955
▁excludes	-1956
▁geometry	-1957
▁includes	-1958
▁journals	-1959
▁meanings	-1960
▁mnemonic	-1961
▁negative	-1962
▁proteins	-1963
▁received	-1964
▁referred	-1965
▁supports	-1966
▁theories	-1967
▁userdata	-1968
ergraduate	-1969
▁Cartesian	-1970
▁Dominican	-1971
▁Ellington	-1972
▁Euclidean	-1973
▁Institute	-1974
▁Singapore	-1975
▁Stephanie	-1976
▁available	-1977
▁criterion	-1978
▁currently	-1979
▁describes	-1980
▁efficient	-1981
▁generally	-1982
▁important	-1983
▁intersect	-1984
▁introduct	-1985
▁metatable	-1986
▁numerical	-1987
▁organized	-1988
▁prescript	-1989
▁published	-1990
▁questions	-1991
▁something	-1992
▁sometimes	-1993
▁synthesis	-1994
▁therefore	-1995
▁translate	-1996
▁typically	-1997
▁variables	-1998
otechnology	-1999
▁Artificial	-2000
▁Controlled	-2001
▁Dictionary	-2002
▁associated	-2003
▁backpropag	-2004
▁classified	-2005
▁considered	-2006
▁consisting	-2007
▁developing	-2008
▁historical	-2009
▁identified	-2010
▁operations	-2011
▁parameters	-2012
▁particular	-2013
▁structural	-2014
▁vocabulary	-2015
▁Association	-2016
▁Linguistics	-2017
▁Measurement	-2018
▁composition	-2019
▁computation	-2020
▁conferences	-2021
▁disciplines	-2022
▁information	-2023
▁organically	-2024
▁recognition	-2025
▁Philadelphia	-2026
▁architecture	-2027
▁phylogenetic	-2028
▁relationship	-2029
▁respectively	-2030
▁Computational	-2031
▁International	-2032
▁collaboration	-2033
▁communication	-2034
▁connectionist	-2035
▁Categorization	-2036
▁classification	-2037
▁interpretation	-2038
▁multiplication	-2039
▁differentiation	-2040
#2	-2041
73	-2042
CM	-2043
TP	-2044
To	-2045
ej	-2046
▁嘉	-2047
-19	-2048
-2.	-2049
...	-2050
ASE	-2051
CLR	-2052
CML	-2053
CSE	-2054
EPL	-2055
JIT	-2056
MIS	-2057
RAM	-2058
SEC	-2059
The	-2060
WSD	-2061
Wit	-2062
adé	-2063
arm	-2064
asy	-2065
bio	-2066
cus	-2067
dne	-2068
eit	-2069
eju	-2070
fix	-2071
haw	-2072
hou	-2073
iki	-2074
ora	-2075
reg	-2076
rel	-2077
row	-2078
ruf	-2079
she	-2080
tra	-2081
urt	-2082
ynt	-2083
yzz	-2084
▁#2	-2085
▁30	-2086
▁4-	-2087
▁5,	-2088
▁50	-2089
▁6,	-2090
▁68	-2091
▁69	-2092
▁7.	-2093
▁Ab	-2094
▁Am	-2095
▁At	-2096
▁BQ	-2097
▁CH	-2098
▁FQ	-2099
9.	-2100
Py	-2101
adm	-2102
alm	-2103
alv	-2104
ash	-2105
eed	-2106
enb	-2107
enm	-2108
erv	-2109
hik	-2110
isb	-2111
isy	-2112
rem	-2113
tle	-2114
xis	-2115
▁11	-2116
▁FU	-2117
▁NG	-2118
▁To	-2119
▁Ty	-2120
▁ba	-2121
▁fa	-2122
▁fl	-2123
▁iO	-2124
▁ip	-2125
-19)	-2126
...]	-2127
2,73	-2128
HASE	-2129
Juni	-2130
MPLE	-2131
NISQ	-2132
TMRC	-2133
Thir	-2134
This	-2135
WVLC	-2136
Wind	-2137
ache	-2138
acks	-2139
ades	-2140
adme	-2141
adém	-2142
agic	-2143
ahas	-2144
alar	-2145
ambi	-2146
anco	-2147
ants	-2148
anyu	-2149
arah	-2150
asir	-2151
asis	-2152
atis	-2153
atti	-2154
atus	-2155
awai	-2156
axis	-2157
chin	-2158
cted	-2159
curr	-2160
cuss	-2161
dney	-2162
duce	-2163
eWit	-2164
ecil	-2165
ecke	-2166
efit	-2167
enho	-2168
erry	-2169
etts	-2170
fuck	-2171
gins	-2172
greg	-2173
hile	-2174
hley	-2175
hood	-2176
ians	-2177
ices	-2178
ills	-2179
inal	-2180
inda	-2181
ique	-2182
isco	-2183
ites	-2184
keep	-2185
king	-2186
leag	-2187
lear	-2188
lobe	-2189
loen	-2190
mmet	-2191
neat	-2192
ners	-2193
oing	-2194
okey	-2195
oney	-2196
ored	-2197
pace	-2198
part	-2199
BC	-2200
ID	-2201
mp	-2202
VID	-2203
anf	-2204
anh	-2205
atr	-2206
ena	-2207
its	-2208
lap	-2209
oes	-2210
ulu	-2211
▁Sy	-2212
▁et	-2213
OVID	-2214
Took	-2215
ands	-2216
esir	-2217
heat	-2218
igns	-2219
irol	-2220
laps	-2221
lymp	-2222
perl	-2223
rask	-2224
ruff	-2225
scop	-2226
sets	-2227
tail	-2228
tair	-2229
take	-2230
time	-2231
ugal	-2232
uzur	-2233
volv	-2234
ways	-2235
weit	-2236
yond	-2237
yzzy	-2238
zyme	-2239
▁(0,	-2240
▁100	-2241
▁116	-2242
▁13,	-2243
▁17,	-2244
▁300	-2245
▁49.	-2246
▁7.4	-2247
▁ABC	-2248
▁ACL	-2249
▁Acc	-2250
▁Act	-2251
▁Add	-2252
▁Apr	-2253
▁Aug	-2254
▁CHE	-2255
▁Cyc	-2256
▁Emp	-2257
▁FQF	-2258
▁FTP	-2259
▁Fie	-2260
▁Foe	-2261
▁Gol	-2262
▁Ill	-2263
▁Iru	-2264
▁Kid	-2265
▁Leb	-2266
▁Lex	-2267
▁Loc	-2268
▁Max	-2269
▁Mov	-2270
▁NGS	-2271
▁Now	-2272
▁One	-2273
▁Our	-2274
▁Out	-2275
▁Qat	-2276
▁San	-2277
▁Sub	-2278
▁Suz	-2279
▁Syn	-2280
▁Tom	-2281
▁Tor	-2282
▁Typ	-2283
▁Val	-2284
▁Ver	-2285
▁Vis	-2286
▁WSD	-2287
▁Web	-2288
▁Wik	-2289
▁Yos	-2290
▁ben	-2291
▁bro	-2292
▁cod	-2293
▁den	-2294
▁eit	-2295
▁fas	-2296
▁fav	-2297
▁fib	-2298
▁iOS	-2299
-3	-2300
77	-2301
86	-2302
AT	-2303
BL	-2304
Ob	-2305
cy	-2306
▁.	-2307
-38	-2308
86%	-2309
977	-2310
BLA	-2311
DAT	-2312
bit	-2313
cat	-2314
cel	-2315
orm	-2316
1977	-2317
BLAS	-2318
GDAT	-2319
ator	-2320
bitr	-2321
ency	-2322
host	-2323
iest	-2324
isqu	-2325
ower	-2326
rept	-2327
▁86%	-2328
▁BQP	-2329
▁Bec	-2330
▁Rel	-2331
▁War	-2332
▁Was	-2333
▁cit	-2334
▁cog	-2335
▁fem	-2336
▁fit	-2337
▁ice	-2338
▁inc	-2339
▁ins	-2340
▁inv	-2341
▁ips	-2342
▁lab	-2343
▁lex	-2344
▁mam	-2345
▁min	-2346
▁mom	-2347
▁mus	-2348
▁nan	-2349
▁non	-2350
▁our	-2351
▁pic	-2352
▁rob	-2353
▁sal	-2354
▁sin	-2355
▁sum	-2356
▁tal	-2357
▁tod	-2358
▁tox	-2359
▁tra	-2360
▁tur	-2361
▁unk	-2362
▁wag	-2363
▁way	-2364
▁win	-2365
▁won	-2366
...]"	-2367
Dance	-2368
IGDAT	-2369
Merry	-2370
NAACL	-2371
Spain	-2372
Touch	-2373
Windy	-2374
Wings	-2375
abelN	-2376
aided	-2377
aight	-2378
ailro	-2379
aints	-2380
alves	-2381
alvin	-2382
ancou	-2383
andai	-2384
apped	-2385
appin	-2386
appor	-2387
apter	-2388
arget	-2389
argon	-2390
arily	-2391
armus	-2392
ashim	-2393
asynt	-2394
atbot	-2395
atisf	-2396
atoes	-2397
atown	-2398
aving	-2399
3)	-2400
ET	-2401
IV	-2402
PF	-2403
ae	-2404
af	-2405
fl	-2406
PFL	-2407
Per	-2408
equ	-2409
flu	-2410
ona	-2411
rew	-2412
yle	-2413
▁WS	-2414
▁bo	-2415
▁fu	-2416
orem	-2417
resp	-2418
▁HIV	-2419
▁Laf	-2420
▁mlp	-2421
▁sed	-2422
assNL	-2423
ayful	-2424
blins	-2425
bridg	-2426
chron	-2427
creas	-2428
dings	-2429
eWitt	-2430
eason	-2431
ength	-2432
enstr	-2433
entro	-2434
ertae	-2435
gress	-2436
gular	-2437
hawty	-2438
iatus	-2439
iaxis	-2440
icing	-2441
icorn	-2442
idgin	-2443
ience	-2444
ifted	-2445
igned	-2446
igure	-2447
ilies	-2448
inent	-2449
inist	-2450
ional	-2451
iques	-2452
isbon	-2453
isenb	-2454
ision	-2455
ivism	-2456
junct	-2457
leagu	-2458
mails	-2459
merly	-2460
ogics	-2461
oined	-2462
older	-2463
olish	-2464
omics	-2465
oning	-2466
oover	-2467
oring	-2468
orksh	-2469
ossal	-2470
ottom	-2471
ounds	-2472
ousew	-2473
ouths	-2474
phism	-2475
pisod	-2476
plays	-2477
prove	-2478
ratic	-2479
reely	-2480
rench	-2481
ricon	-2482
riend	-2483
rigin	-2484
riven	-2485
ronym	-2486
rosis	-2487
ruffy	-2488
sense	-2489
sheet	-2490
stalk	-2491
stone	-2492
suing	-2493
thalm	-2494
togen	-2495
urpos	-2496
usion	-2497
ussel	-2498
ustry	-2499
30	-2500
JC	-2501
LT	-2502
SA	-2503
SN	-2504
▁/	-2505
▁7	-2506
IJC	-2507
SNP	-2508
USA	-2509
enh	-2510
ida	-2511
org	-2512
▁nt	-2513
▁嘉邦	-2514
ases	-2515
asit	-2516
ects	-2517
embl	-2518
vide	-2519
▁350	-2520
▁HLT	-2521
▁Kin	-2522
▁imm	-2523
▁key	-2524
▁ord	-2525
ality	-2526
aring	-2527
enhag	-2528
itary	-2529
ution	-2530
vents	-2531
verbs	-2532
weitz	-2533
ybrid	-2534
ōchin	-2535
▁(#15	-2536
▁1930	-2537
▁1960	-2538
▁1978	-2539
▁1979	-2540
▁Adam	-2541
▁Adin	-2542
▁Andy	-2543
▁Arab	-2544
▁Asay	-2545
▁Back	-2546
▁Ball	-2547
▁BarC	-2548
▁Bean	-2549
▁Biop	-2550
▁Camp	-2551
▁Club	-2552
▁Crow	-2553
▁Curt	-2554
▁Denm	-2555
▁EPFL	-2556
▁Feat	-2557
▁File	-2558
▁Fire	-2559
▁Flor	-2560
▁Fort	-2561
▁Full	-2562
▁Gold	-2563
▁Gran	-2564
▁ICLR	-2565
▁ICML	-2566
▁Idol	-2567
▁Jake	-2568
▁Kids	-2569
▁KinK	-2570
▁Lena	-2571
▁Loss	-2572
▁Love	-2573
▁LuaR	-2574
▁MSEC	-2575
▁Marc	-2576
▁Miki	-2577
▁Mult	-2578
▁NISQ	-2579
▁Next	-2580
▁Open	-2581
▁Oral	-2582
▁Pert	-2583
▁Phot	-2584
▁Prem	-2585
▁Publ	-2586
▁QNLP	-2587
▁QRAM	-2588
▁REPL	-2589
▁Rain	-2590
▁Seat	-2591
▁Sequ	-2592
▁Serv	-2593
▁Tanh	-2594
▁Task	-2595
▁Thus	-2596
▁Very	-2597
▁Vide	-2598
▁Wikt	-2599
At	-2600
Db	-2601
WS	-2602
be	-2603
gi	-2604
ha	-2605
ii	-2606
ça	-2607
MDb	-2608
Vir	-2609
ang	-2610
beq	-2611
ced	-2612
con	-2613
dom	-2614
oha	-2615
ris	-2616
ror	-2617
sty	-2618
tol	-2619
▁II	-2620
Virt	-2621
ager	-2622
arie	-2623
atch	-2624
elgi	-2625
ione	-2626
itts	-2627
line	-2628
name	-2629
rope	-2630
▁Nor	-2631
▁Opt	-2632
▁Tak	-2633
▁Tog	-2634
▁Way	-2635
▁fur	-2636
▁ing	-2637
▁nor	-2638
ademy	-2639
ambeq	-2640
asets	-2641
error	-2642
ignal	-2643
iving	-2644
patch	-2645
toler	-2646
unced	-2647
urist	-2648
çaise	-2649
▁Cave	-2650
▁Doha	-2651
▁IMDb	-2652
▁Main	-2653
▁Prin	-2654
▁Wayb	-2655
▁Yand	-2656
▁Your	-2657
▁Zeng	-2658
▁anno	-2659
▁asyn	-2660
▁audi	-2661
▁biom	-2662
▁book	-2663
▁buil	-2664
▁cann	-2665
▁carc	-2666
▁catb	-2667
▁cent	-2668
▁chos	-2669
▁code	-2670
▁corn	-2671
▁cros	-2672
▁cyst	-2673
▁days	-2674
▁educ	-2675
▁emer	-2676
▁emph	-2677
▁etym	-2678
▁eval	-2679
▁even	-2680
▁fair	-2681
▁feed	-2682
▁figh	-2683
▁figu	-2684
▁full	-2685
▁glob	-2686
▁help	-2687
▁herb	-2688
▁iter	-2689
▁jade	-2690
▁keep	-2691
▁kind	-2692
▁load	-2693
▁loss	-2694
▁luck	-2695
▁mane	-2696
▁mark	-2697
▁meas	-2698
▁onto	-2699
";	-2700
1.	-2701
39	-2702
py	-2703
rd	-2704
uh	-2705
639	-2706
era	-2707
tel	-2708
akuh	-2709
esis	-2710
igur	-2711
lege	-2712
▁Gen	-2713
▁oph	-2714
▁tog	-2715
32,73	-2716
ories	-2717
ption	-2718
▁1164	-2719
▁1639	-2720
▁1965	-2721
▁Anal	-2722
▁Kana	-2723
▁Over	-2724
▁Port	-2725
▁cast	-2726
▁cycl	-2727
▁peer	-2728
▁phil	-2729
▁pick	-2730
▁plan	-2731
▁prob	-2732
▁quux	-2733
▁real	-2734
▁rout	-2735
▁sets	-2736
▁shap	-2737
▁site	-2738
▁syll	-2739
▁taxa	-2740
▁tent	-2741
▁then	-2742
▁tree	-2743
▁unif	-2744
▁unim	-2745
▁upon	-2746
▁vers	-2747
▁ways	-2748
▁went	-2749
▁wild	-2750
▁wrap	-2751
Canada	-2752
FOOBAR	-2753
Hybrid	-2754
IJCNLP	-2755
Junior	-2756
SIGDAT	-2757
Shawty	-2758
abeled	-2759
ackson	-2760
actors	-2761
adémie	-2762
ahashi	-2763
ambigu	-2764
amenho	-2765
anford	-2766
apporo	-2767
arsell	-2768
artley	-2769
asting	-2770
atrain	-2771
attles	-2772
button	-2773
celona	-2774
change	-2775
cimens	-2776
covery	-2777
cribed	-2778
cussed	-2779
dimens	-2780
driven	-2781
eading	-2782
emarie	-2783
ential	-2784
ention	-2785
erials	-2786
foobar	-2787
formed	-2788
fucked	-2789
ground	-2790
holder	-2791
icinal	-2792
iguity	-2793
ilayer	-2794
iments	-2795
imilar	-2796
iroids	-2797
irolog	-2798
isting	-2799
-"	-2800
.'	-2801
/1	-2802
EE	-2803
TR	-2804
▁§	-2805
堂珍	-2806
EED	-2807
TRY	-2808
aly	-2809
din	-2810
ino	-2811
iny	-2812
lus	-2813
/10,	-2814
arth	-2815
chie	-2816
erek	-2817
inom	-2818
ires	-2819
lush	-2820
nown	-2821
ober	-2822
▁28,	-2823
▁Abu	-2824
▁Him	-2825
▁Ros	-2826
▁app	-2827
▁cof	-2828
▁der	-2829
artha	-2830
chiev	-2831
ching	-2832
cious	-2833
olulu	-2834
onent	-2835
orage	-2836
voice	-2837
▁2021	-2838
▁Daly	-2839
▁Edin	-2840
▁Mass	-2841
▁SEED	-2842
▁give	-2843
▁here	-2844
▁rank	-2845
MISTRY	-2846
ampion	-2847
ctober	-2848
estiny	-2849
iflush	-2850
inogen	-2851
lected	-2852
lingua	-2853
lished	-2854
lympic	-2855
matrix	-2856
mentii	-2857
merger	-2858
mmetry	-2859
native	-2860
oblins	-2861
olades	-2862
omatic	-2863
onatti	-2864
onique	-2865
onomic	-2866
orient	-2867
osites	-2868
ospace	-2869
oughts	-2870
output	-2871
person	-2872
ported	-2873
quared	-2874
reater	-2875
reptoc	-2876
review	-2877
riking	-2878
rising	-2879
scopic	-2880
series	-2881
strate	-2882
styled	-2883
tained	-2884
tended	-2885
though	-2886
trains	-2887
uclear	-2888
umably	-2889
uments	-2890
usetts	-2891
ussels	-2892
vector	-2893
verend	-2894
veying	-2895
viroid	-2896
vising	-2897
volved	-2898
▁(#13)	-2899
Her	-2900
ami	-2901
bia	-2902
iva	-2903
kit	-2904
onn	-2905
▁15	-2906
▁Cz	-2907
▁PV	-2908
▁Pa	-2909
▁ir	-2910
iami	-2911
ocol	-2912
ring	-2913
urce	-2914
▁Cam	-2915
▁Rob	-2916
▁beh	-2917
▁ext	-2918
▁vir	-2919
awaii	-2920
ertil	-2921
imate	-2922
occus	-2923
olkit	-2924
onnie	-2925
orean	-2926
tocol	-2927
umbia	-2928
▁Paul	-2929
▁irre	-2930
▁main	-2931
▁tale	-2932
itious	-2933
source	-2934
▁(0,0)	-2935
▁(1977	-2936
▁1960.	-2937
▁1997,	-2938
▁1998,	-2939
▁1999,	-2940
▁2000,	-2941
▁2003,	-2942
▁2004,	-2943
▁2005,	-2944
▁2006,	-2945
▁2007,	-2946
▁2009,	-2947
▁2011.	-2948
▁2012,	-2949
▁2013,	-2950
▁2014,	-2951
▁2015,	-2952
▁2016,	-2953
▁2017,	-2954
▁2018)	-2955
▁2018,	-2956
▁2019,	-2957
▁2023,	-2958
▁2023.	-2959
▁2024,	-2960
▁2025,	-2961
▁AMPLE	-2962
▁Album	-2963
▁Amand	-2964
▁Andro	-2965
▁April	-2966
▁Bache	-2967
▁Being	-2968
▁Belgi	-2969
▁COVID	-2970
▁Cecil	-2971
▁Charl	-2972
▁Clark	-2973
▁Cyber	-2974
▁Czech	-2975
▁Derek	-2976
▁Dream	-2977
▁Empir	-2978
▁Enter	-2979
▁Evans	-2980
▁Exper	-2981
▁FUBAR	-2982
▁Force	-2983
▁Frask	-2984
▁Given	-2985
▁Globe	-2986
▁Graph	-2987
▁Group	-2988
▁Guest	-2989
▁Guild	-2990
▁Hanyu	-2991
▁Harri	-2992
▁Harry	-2993
▁Ident	-2994
▁Instr	-2995
▁Kanaz	-2996
▁Large	-2997
▁Linda	-2998
▁Lorem	-2999
Kim	-3000
Let	-3001
ims	-3002
vir	-3003
▁14	-3004
▁Me	-3005
Comp	-3006
Kimi	-3007
QNLP	-3008
icle	-3009
iley	-3010
imat	-3011
inch	-3012
ivid	-3013
plac	-3014
rial	-3015
vant	-3016
▁Alc	-3017
▁All	-3018
▁Ele	-3019
▁Lee	-3020
▁Ral	-3021
▁aid	-3022
▁fun	-3023
▁hom	-3024
▁imp	-3025
▁mem	-3026
▁sem	-3027
ailey	-3028
crete	-3029
ement	-3030
ensed	-3031
onics	-3032
otten	-3033
owers	-3034
rical	-3035
viron	-3036
▁Fant	-3037
▁Jeju	-3038
▁aims	-3039
▁biop	-3040
▁inst	-3041
▁resp	-3042
bridge	-3043
ichard	-3044
placed	-3045
▁Cycle	-3046
▁Madel	-3047
▁Makuh	-3048
▁Mason	-3049
▁Mater	-3050
▁Medic	-3051
▁Metac	-3052
▁Miami	-3053
▁Model	-3054
▁Night	-3055
▁North	-3056
▁Novak	-3057
▁Pitts	-3058
▁Price	-3059
▁Prote	-3060
▁Qatar	-3061
▁Rainn	-3062
▁Ralph	-3063
▁Sarah	-3064
▁Short	-3065
▁Smith	-3066
▁South	-3067
▁Steve	-3068
▁Theor	-3069
▁There	-3070
▁Toron	-3071
▁Valen	-3072
▁While	-3073
▁WordN	-3074
▁Words	-3075
▁Yasir	-3076
▁Yuzur	-3077
▁abstr	-3078
▁activ	-3079
▁added	-3080
▁after	-3081
▁album	-3082
▁apply	-3083
▁areas	-3084
▁assum	-3085
▁avion	-3086
▁bless	-3087
▁board	-3088
▁built	-3089
▁cause	-3090
▁chant	-3091
▁chart	-3092
▁cheat	-3093
▁coden	-3094
▁count	-3095
▁datab	-3096
▁deals	-3097
▁demon	-3098
▁deriv	-3099
Kee	-3100
abi	-3101
apl	-3102
ize	-3103
lig	-3104
oog	-3105
sey	-3106
uma	-3107
▁("	-3108
▁2,	-3109
▁If	-3110
Keep	-3111
abol	-3112
cest	-3113
good	-3114
habi	-3115
play	-3116
ties	-3117
tter	-3118
umed	-3119
▁Big	-3120
▁dog	-3121
▁few	-3122
▁fix	-3123
▁hum	-3124
▁mil	-3125
alsey	-3126
entum	-3127
oogle	-3128
osing	-3129
ranch	-3130
▁1000	-3131
▁2017	-3132
▁Each	-3133
▁Lapl	-3134
▁Null	-3135
▁bees	-3136
▁sine	-3137
cestry	-3138
ension	-3139
hikuni	-3140
posing	-3141
▁2017.	-3142
▁Dhabi	-3143
▁Intel	-3144
▁adult	-3145
▁angle	-3146
▁audio	-3147
▁domin	-3148
▁earli	-3149
▁elect	-3150
▁embry	-3151
▁ended	-3152
▁exact	-3153
▁exist	-3154
▁extra	-3155
▁fairy	-3156
▁fault	-3157
▁figur	-3158
▁fired	-3159
▁fixed	-3160
▁flows	-3161
▁fluct	-3162
▁frame	-3163
▁going	-3164
▁honey	-3165
▁incre	-3166
▁index	-3167
▁indic	-3168
▁influ	-3169
▁inher	-3170
▁large	-3171
▁later	-3172
▁liter	-3173
▁magic	-3174
▁marks	-3175
▁might	-3176
▁misqu	-3177
▁moved	-3178
▁music	-3179
▁names	-3180
▁nanob	-3181
▁needs	-3182
▁noisy	-3183
▁nomin	-3184
▁oblig	-3185
▁occur	-3186
▁offer	-3187
▁padme	-3188
▁pairs	-3189
▁parad	-3190
▁parts	-3191
▁physi	-3192
▁pinch	-3193
▁plays	-3194
▁polym	-3195
▁power	-3196
▁pract	-3197
▁print	-3198
▁reads	-3199
▁要	-3200
cia	-3201
ood	-3202
osh	-3203
▁10	-3204
▁Fu	-3205
▁ga	-3206
Vari	-3207
aper	-3208
char	-3209
iate	-3210
ifle	-3211
igms	-3212
oods	-3213
osis	-3214
ostg	-3215
rama	-3216
▁Bro	-3217
▁Fut	-3218
▁Ice	-3219
▁NLP	-3220
▁Rad	-3221
▁aer	-3222
▁cap	-3223
▁cor	-3224
▁dot	-3225
▁hot	-3226
actic	-3227
alter	-3228
human	-3229
ieces	-3230
order	-3231
oshua	-3232
otics	-3233
raphy	-3234
▁2018	-3235
▁area	-3236
▁base	-3237
▁ease	-3238
▁sell	-3239
▁star	-3240
▁stre	-3241
Pieces	-3242
edical	-3243
ergies	-3244
lexity	-3245
▁1978.	-3246
▁Adina	-3247
▁Franc	-3248
▁Haiti	-3249
▁Inste	-3250
▁Signs	-3251
▁Techn	-3252
▁Woods	-3253
▁clear	-3254
▁cross	-3255
▁drama	-3256
▁paper	-3257
▁postg	-3258
▁resiz	-3259
▁restr	-3260
▁sangu	-3261
▁score	-3262
▁secur	-3263
▁sedis	-3264
▁sense	-3265
▁shape	-3266
▁share	-3267
▁shell	-3268
▁short	-3269
▁signs	-3270
▁simul	-3271
▁since	-3272
▁slang	-3273
▁speed	-3274
▁start	-3275
▁style	-3276
▁taxon	-3277
▁thing	-3278
▁title	-3279
▁today	-3280
▁toxic	-3281
▁tried	-3282
▁usage	-3283
▁verbs	-3284
▁virus	-3285
▁vital	-3286
▁vocal	-3287
▁whale	-3288
▁whate	-3289
▁while	-3290
▁whist	-3291
▁world	-3292
▁write	-3293
▁xyzzy	-3294
32,738,	-3295
History	-3296
Tookage	-3297
Virtual	-3298
abelNET	-3299
Foo	-3300
awa	-3301
▁On	-3302
Rate	-3303
cons	-3304
itud	-3305
jury	-3306
ocks	-3307
very	-3308
▁Hon	-3309
▁Sto	-3310
▁Sup	-3311
▁Tex	-3312
▁ado	-3313
aries	-3314
eland	-3315
itude	-3316
orial	-3317
ralia	-3318
rover	-3319
▁Bory	-3320
▁Emir	-3321
▁Hand	-3322
▁Mary	-3323
▁Tate	-3324
▁With	-3325
▁imag	-3326
▁late	-3327
▁prag	-3328
▁quad	-3329
▁vary	-3330
ionary	-3331
ishing	-3332
istled	-3333
orable	-3334
▁2002,	-3335
▁Avery	-3336
▁Texas	-3337
▁means	-3338
amenhof	-3339
arallel	-3340
ardware	-3341
arsells	-3342
article	-3343
asoning	-3344
assNLLC	-3345
biology	-3346
bitrary	-3347
bridged	-3348
ceptron	-3349
certain	-3350
ctronic	-3351
curring	-3352
duction	-3353
efiting	-3354
emblies	-3355
enhagen	-3356
entists	-3357
entropy	-3358
ertilis	-3359
forward	-3360
fulness	-3361
gorical	-3362
hington	-3363
hysical	-3364
ialects	-3365
ictions	-3366
igmatic	-3367
imately	-3368
inetics	-3369
irology	-3370
isition	-3371
leagues	-3372
matical	-3373
mediate	-3374
natural	-3375
ologist	-3376
onsense	-3377
orkshop	-3378
orphism	-3379
outines	-3380
perties	-3381
pisodes	-3382
program	-3383
reaming	-3384
redient	-3385
related	-3386
renamed	-3387
respons	-3388
ressive	-3389
ributes	-3390
scruffy	-3391
similar	-3392
urposed	-3393
urposes	-3394
vantage	-3395
vention	-3396
venture	-3397
verbial	-3398
▁(#15).	-3399
川畑	-3400
cay	-3401
ews	-3402
ray	-3403
izes	-3404
oper	-3405
wide	-3406
▁195	-3407
▁Cop	-3408
▁Get	-3409
▁add	-3410
▁baz	-3411
▁day	-3412
▁dub	-3413
▁hit	-3414
▁max	-3415
▁via	-3416
ciple	-3417
ensic	-3418
ensus	-3419
estig	-3420
given	-3421
jects	-3422
metal	-3423
ritic	-3424
▁1959	-3425
▁2012	-3426
▁2016	-3427
▁Brit	-3428
▁Jack	-3429
▁News	-3430
▁five	-3431
▁live	-3432
▁seen	-3433
▁tech	-3434
Period	-3435
Thirty	-3436
erised	-3437
itions	-3438
▁1978)	-3439
▁Gates	-3440
▁Ghost	-3441
▁KinKi	-3442
▁PHASE	-3443
▁array	-3444
▁biost	-3445
▁cited	-3446
▁cover	-3447
▁decay	-3448
▁trial	-3449
compass	-3450
erstone	-3451
ologies	-3452
uations	-3453
▁1979).	-3454
▁Achiev	-3455
▁Albums	-3456
▁Altair	-3457
▁Amanda	-3458
▁Andrew	-3459
▁Applic	-3460
▁Asayan	-3461
▁Ashley	-3462
▁Atomic	-3463
▁August	-3464
▁Austin	-3465
▁Awards	-3466
▁Bailey	-3467
▁Bandai	-3468
▁Bonnie	-3469
▁Calvin	-3470
▁Canada	-3471
▁Coecke	-3472
▁Common	-3473
▁Concat	-3474
▁Creole	-3475
▁Curtis	-3476
▁DeWitt	-3477
▁Design	-3478
▁Discog	-3479
▁During	-3480
▁Dōchin	-3481
▁Eisenb	-3482
▁Energy	-3483
▁Europe	-3484
▁Events	-3485
▁FOOBAR	-3486
▁Figure	-3487
▁Foobar	-3488
▁French	-3489
▁Future	-3490
▁Garmus	-3491
▁Golden	-3492
▁Google	-3493
▁Grover	-3494
▁Halsey	-3495
▁Hashim	-3496
▁Hawaii	-3497
▁Hoover	-3498
▁Injury	-3499
Fee	-3500
2000	-3501
case	-3502
hode	-3503
seen	-3504
▁Bob	-3505
▁art	-3506
▁far	-3507
▁sac	-3508
▁ult	-3509
▁yet	-3510
elisk	-3511
ested	-3512
orted	-3513
unity	-3514
▁1970	-3515
▁2000	-3516
▁Also	-3517
▁Cast	-3518
▁Cond	-3519
▁Curr	-3520
▁Prag	-3521
▁Upon	-3522
▁case	-3523
▁cult	-3524
▁exem	-3525
▁high	-3526
▁ions	-3527
▁just	-3528
▁lead	-3529
▁pole	-3530
▁vast	-3531
▁will	-3532
atbots	-3533
ensely	-3534
ensmal	-3535
onders	-3536
▁2020,	-3537
▁Along	-3538
▁Award	-3539
▁Rhode	-3540
▁above	-3541
▁alert	-3542
▁allow	-3543
▁comic	-3544
▁error	-3545
▁ipsum	-3546
▁joint	-3547
▁stars	-3548
abolome	-3549
actions	-3550
ailroad	-3551
casting	-3552
inomial	-3553
organic	-3554
▁Intake	-3555
▁Jargon	-3556
▁Joshua	-3557
▁Korean	-3558
▁Lafond	-3559
▁Latent	-3560
▁Latino	-3561
▁Leland	-3562
▁Linear	-3563
▁Lisbon	-3564
▁LuaJIT	-3565
▁Martha	-3566
▁Matter	-3567
▁Menstr	-3568
▁Modern	-3569
▁Movies	-3570
▁Oricon	-3571
▁Origin	-3572
▁Parker	-3573
▁Points	-3574
▁Polish	-3575
▁Powers	-3576
▁Prague	-3577
▁Radial	-3578
▁Robert	-3579
▁Rotten	-3580
▁Season	-3581
▁Sledge	-3582
▁Smokey	-3583
▁Stover	-3584
▁String	-3585
▁Supper	-3586
▁Suzhou	-3587
▁Sydney	-3588
▁Theory	-3589
▁Vancou	-3590
▁Videos	-3591
▁Visual	-3592
▁Walter	-3593
▁Yandex	-3594
▁Yuzuru	-3595
▁[...]"	-3596
▁accomp	-3597
▁actual	-3598
▁aggreg	-3599
ogous	-3600
▁memb	-3601
▁Logic	-3602
▁World	-3603
ologous	-3604
▁albums	-3605
▁allows	-3606
▁always	-3607
▁annual	-3608
▁answer	-3609
▁assume	-3610
▁become	-3611
▁before	-3612
▁begins	-3613
▁behind	-3614
▁beyond	-3615
▁binary	-3616
▁bottom	-3617
▁branch	-3618
▁broken	-3619
▁cannot	-3620
▁change	-3621
▁charts	-3622
▁chosen	-3623
▁constr	-3624
▁critic	-3625
▁cycles	-3626
▁cystic	-3627
▁depend	-3628
▁design	-3629
▁dimens	-3630
▁effect	-3631
▁either	-3632
▁emerge	-3633
▁ending	-3634
▁enzyme	-3635
▁evolve	-3636
▁expand	-3637
▁family	-3638
▁faster	-3639
▁fields	-3640
▁figure	-3641
▁freely	-3642
▁friend	-3643
▁giving	-3644
▁graphs	-3645
▁groups	-3646
▁hacker	-3647
▁halves	-3648
▁happin	-3649
▁having	-3650
▁hiatus	-3651
▁hosted	-3652
▁housew	-3653
▁humans	-3654
▁impact	-3655
▁infect	-3656
▁insect	-3657
▁inside	-3658
▁issued	-3659
▁joined	-3660
▁lambeq	-3661
▁length	-3662
▁letter	-3663
▁logics	-3664
▁longer	-3665
▁making	-3666
▁mammal	-3667
▁marine	-3668
▁memory	-3669
▁method	-3670
▁models	-3671
▁modern	-3672
▁module	-3673
▁mouths	-3674
▁moving	-3675
▁nanobi	-3676
▁normal	-3677
▁number	-3678
▁occurs	-3679
▁online	-3680
▁parent	-3681
▁passed	-3682
▁period	-3683
▁pidgin	-3684
▁plants	-3685
▁prefix	-3686
▁record	-3687
▁recurs	-3688
▁reduce	-3689
▁sacred	-3690
▁saliva	-3691
▁satisf	-3692
▁saying	-3693
▁scalar	-3694
▁script	-3695
▁severe	-3696
▁shared	-3697
▁showed	-3698
▁sifted	-3699
▁signal	-3700
▁signed	-3701
▁simple	-3702
▁singer	-3703
▁skills	-3704
▁source	-3705
▁speech	-3706
▁stable	-3707
▁stifle	-3708
▁streak	-3709
▁strong	-3710
▁superl	-3711
▁switch	-3712
▁syntax	-3713
▁taking	-3714
▁tapped	-3715
▁target	-3716
▁things	-3717
▁thrown	-3718
▁toward	-3719
▁trauma	-3720
▁unable	-3721
▁unless	-3722
▁viewed	-3723
▁waggle	-3724
▁within	-3725
▁worked	-3726
Complete	-3727
Gradient	-3728
Obelisks	-3729
Touching	-3730
Variable	-3731
allelism	-3732
archived	-3733
chemical	-3734
chronous	-3735
complete	-3736
creasing	-3737
cription	-3738
criptome	-3739
esirable	-3740
existing	-3741
inspired	-3742
iterated	-3743
ividuals	-3744
jections	-3745
junction	-3746
medicine	-3747
mentally	-3748
obelisks	-3749
ordinate	-3750
oriented	-3751
portedly	-3752
redients	-3753
resented	-3754
reviewed	-3755
rounding	-3756
structor	-3757
tailored	-3758
tainment	-3759
therhood	-3760
tolerant	-3761
uristics	-3762
▁(0,0,0)	-3763
▁7.4/10,	-3764
▁Actress	-3765
▁Address	-3766
▁Amentii	-3767
▁Android	-3768
▁Anthony	-3769
▁Ballmer	-3770
▁BarCamp	-3771
▁Bartley	-3772
▁Battles	-3773
▁Because	-3774
▁Belgium	-3775
▁British	-3776
▁Chapter	-3777
▁Charlie	-3778
▁College	-3779
▁Corpora	-3780
▁Denmark	-3781
▁Destiny	-3782
▁DisCoPy	-3783
▁Donatti	-3784
▁Fantasy	-3785
▁Florida	-3786
▁Fortran	-3787
▁Granada	-3788
▁Haitian	-3789
▁Harriet	-3790
▁Illness	-3791
▁Instead	-3792
▁Jackson	-3793
▁Kingdom	-3794
▁Laplace	-3795
▁Leading	-3796
▁Lexical	-3797
▁Machine	-3798
▁Massach	-3799
▁Methods	-3800
▁Monique	-3801
▁Nuclear	-3802
▁Objects	-3803
▁October	-3804
▁Olympic	-3805
▁Optical	-3806
▁Pointed	-3807
▁Premise	-3808
▁Present	-3809
▁Protein	-3810
▁Records	-3811
▁Richard	-3812
▁Sapporo	-3813
▁Seattle	-3814
▁Simpler	-3815
▁Singles	-3816
▁Synergy	-3817
▁Toronto	-3818
▁Typical	-3819
▁Unicorn	-3820
▁Viroids	-3821
▁Wayback	-3822
▁WordNet	-3823
▁academy	-3824
▁acronym	-3825
▁adapted	-3826
▁applied	-3827
▁because	-3828
▁binding	-3829
▁careers	-3830
▁century	-3831
▁certain	-3832
▁classes	-3833
▁classic	-3834
▁cloning	-3835
▁coating	-3836
▁creates	-3837
▁credits	-3838
▁culture	-3839
▁current	-3840
▁cytogen	-3841
▁denoted	-3842
▁descent	-3843
▁details	-3844
▁diction	-3845
▁display	-3846
▁divided	-3847
▁divides	-3848
▁dynamic	-3849
▁earlier	-3850
▁educate	-3851
▁environ	-3852
▁enzymes	-3853
▁factors	-3854
▁factory	-3855
▁feature	-3856
▁fighter	-3857
▁focused	-3858
▁forming	-3859
▁further	-3860
▁genomic	-3861
▁grammar	-3862
▁greater	-3863
▁hackers	-3864
▁helpful	-3865
▁improve	-3866
▁labeled	-3867
▁leading	-3868
▁lexical	-3869
▁loading	-3870
▁manager	-3871
▁manuals	-3872
▁markers	-3873
▁married	-3874
▁members	-3875
▁musical	-3876
▁obelisk	-3877
▁offered	-3878
▁options	-3879
▁outside	-3880
▁parasit	-3881
▁perfect	-3882
▁phrases	-3883
▁physics	-3884
▁playful	-3885
▁popular	-3886
▁portion	-3887
▁primary	-3888
▁produce	-3889
▁provide	-3890
▁regular	-3891
▁remains	-3892
▁require	-3893
▁results	-3894
▁resumed	-3895
▁scoring	-3896
▁selling	-3897
▁several	-3898
▁sharing	-3899
▁singles	-3900
▁skating	-3901
▁slicing	-3902
▁someone	-3903
▁sources	-3904
▁species	-3905
▁speedup	-3906
▁squared	-3907
▁started	-3908
▁statist	-3909
▁stopped	-3910
▁storage	-3911
▁subsets	-3912
▁symbols	-3913
▁talents	-3914
▁toolkit	-3915
▁towards	-3916
▁turning	-3917
▁typical	-3918
▁uniform	-3919
▁univers	-3920
▁unknown	-3921
▁utilize	-3922
▁various	-3923
▁version	-3924
▁viroids	-3925
▁whereas	-3926
▁winners	-3927
▁without	-3928
▁wrapped	-3929
▁written	-3930
Sometimes	-3931
ationship	-3932
character	-3933
classname	-3934
conscious	-3935
enigmatic	-3936
formatics	-3937
generally	-3938
generated	-3939
hematical	-3940
inguished	-3941
loenzymes	-3942
ranscript	-3943
resenting	-3944
ributions	-3945
struction	-3946
▁332,738,	-3947
▁Abridged	-3948
▁Académie	-3949
▁Analysis	-3950
▁BabelNET	-3951
▁Bachelor	-3952
▁Brussels	-3953
▁Category	-3954
▁Colossal	-3955
▁Columbia	-3956
▁Communic	-3957
▁Compound	-3958
▁Creating	-3959
▁Criteria	-3960
▁Crowther	-3961
▁Displays	-3962
▁Distance	-3963
▁Emirates	-3964
▁Episodes	-3965
▁Examples	-3966
▁Features	-3967
▁Genetics	-3968
▁Honolulu	-3969
▁Journals	-3970
▁Kanazawa	-3971
▁LuaRocks	-3972
▁Madeline	-3973
▁Makuhari	-3974
▁Maryland	-3975
▁Parallel	-3976
▁Parsells	-3977
▁Particle	-3978
▁Portugal	-3979
▁Railroad	-3980
▁Reverend	-3981
▁Services	-3982
▁Standard	-3983
▁Stanford	-3984
▁Streptoc	-3985
▁Together	-3986
▁Tomatoes	-3987
▁Valencia	-3988
▁Whistled	-3989
▁Workshop	-3990
▁Zamenhof	-3991
▁abstract	-3992
▁acquired	-3993
▁adoption	-3994
▁allusion	-3995
▁although	-3996
▁ancestry	-3997
▁appeared	-3998
▁applying	-3999
▁approach	-4000
▁approval	-4001
▁assigned	-4002
▁attempts	-4003
▁attested	-4004
▁audition	-4005
▁avionics	-4006
▁blessing	-4007
▁category	-4008
▁cellular	-4009
▁champion	-4010
▁chatbots	-4011
▁chemical	-4012
▁citation	-4013
▁codename	-4014
▁commands	-4015
▁commonly	-4016
▁composed	-4017
▁computed	-4018
▁computes	-4019
▁contains	-4020
▁counters	-4021
▁credited	-4022
▁criteria	-4023
▁database	-4024
▁datasets	-4025
▁devising	-4026
▁dialects	-4027
▁directly	-4028
▁discrete	-4029
▁dispatch	-4030
▁distance	-4031
▁division	-4032
▁dynamics	-4033
▁earliest	-4034
▁embedded	-4035
▁emerging	-4036
▁emphasis	-4037
▁entirely	-4038
▁entities	-4039
▁evaluate	-4040
▁examples	-4041
▁extended	-4042
▁families	-4043
▁features	-4044
▁feminist	-4045
▁fertilis	-4046
▁fibrosis	-4047
▁figurine	-4048
▁flexible	-4049
▁flexione	-4050
▁forensic	-4051
▁formerly	-4052
▁genetics	-4053
▁globally	-4054
▁grammars	-4055
▁graphics	-4056
▁hardware	-4057
▁identity	-4058
▁incertae	-4059
▁included	-4060
▁indexing	-4061
▁industry	-4062
▁inspired	-4063
▁interest	-4064
▁intimate	-4065
▁investig	-4066
▁involved	-4067
▁kinetics	-4068
▁matching	-4069
▁measures	-4070
▁metasynt	-4071
▁military	-4072
▁momentum	-4073
▁multiple	-4074
▁nonsense	-4075
▁obtained	-4076
▁ophthalm	-4077
▁ordinary	-4078
▁overlaps	-4079
▁overseen	-4080
▁physical	-4081
▁planning	-4082
▁presence	-4083
▁problems	-4084
▁progress	-4085
▁proteome	-4086
▁protocol	-4087
▁purposes	-4088
▁pursuing	-4089
▁quatrain	-4090
▁question	-4091
▁remember	-4092
▁replaced	-4093
▁reported	-4094
▁requires	-4095
▁research	-4096
▁resizing	-4097
▁robotics	-4098
▁routines	-4099
▁sciences	-4100
▁security	-4101
▁selected	-4102
▁semiaxis	-4103
▁sequence	-4104
▁standard	-4105
▁straight	-4106
▁striking	-4107
▁syllable	-4108
▁symmetry	-4109
▁thoughts	-4110
▁together	-4111
▁training	-4112
▁virology	-4113
▁weighted	-4114
▁whatever	-4115
changeably	-4116
ertainment	-4117
inogenesis	-4118
nucleotide	-4119
responsive	-4120
▁Accolades	-4121
▁According	-4122
▁Adventure	-4123
▁Alchemist	-4124
▁Allergies	-4125
▁Anthology	-4126
▁Australia	-4127
▁Barcelona	-4128
▁Beanstalk	-4129
▁Boryweitz	-4130
▁CHEMISTRY	-4131
▁Cambridge	-4132
▁Chinatown	-4133
▁ClassNLLC	-4134
▁Computing	-4135
▁Condensed	-4136
▁Criterion	-4137
▁Currently	-4138
▁Described	-4139
▁Directors	-4140
▁Discovery	-4141
▁Edinburgh	-4142
▁Eisenberg	-4143
▁Empirical	-4144
▁Emulation	-4145
▁Francisco	-4146
▁Française	-4147
▁Fullmetal	-4148
▁Interoper	-4149
▁Lebensmal	-4150
▁Locations	-4151
▁Logicians	-4152
▁Materials	-4153
▁Menstrual	-4154
▁Molecular	-4155
▁Operation	-4156
▁Pertinent	-4157
▁Photonics	-4158
▁Principle	-4159
▁Reception	-4160
▁Recurring	-4161
▁Rosemarie	-4162
▁Scientist	-4163
▁Sometimes	-4164
▁Takahashi	-4165
▁Technical	-4166
▁Vancouver	-4167
▁Yoshikuni	-4168
▁according	-4169
▁advantage	-4170
▁adverbial	-4171
▁aerospace	-4172
▁ambiguity	-4173
▁ambitious	-4174
▁analogous	-4175
▁announced	-4176
▁answering	-4177
▁arbitrary	-4178
▁automatic	-4179
▁autonomic	-4180
▁cofactors	-4181
▁cognition	-4182
▁combining	-4183
▁community	-4184
▁complexes	-4185
▁component	-4186
▁compounds	-4187
▁concerned	-4188
▁consensus	-4189
▁depending	-4190
▁described	-4191
▁determine	-4192
▁developed	-4193
▁developer	-4194
▁diagnosis	-4195
▁directing	-4196
▁direction	-4197
▁disambigu	-4198
▁discussed	-4199
▁dominated	-4200
▁emergency	-4201
▁encompass	-4202
▁enigmatic	-4203
▁etymology	-4204
▁evolution	-4205
▁exception	-4206
▁executive	-4207
▁explained	-4208
▁extension	-4209
▁factories	-4210
▁favorable	-4211
▁featuring	-4212
▁geometric	-4213
▁gradients	-4214
▁happiness	-4215
▁identific	-4216
▁imaginary	-4217
▁immensely	-4218
▁influence	-4219
▁installed	-4220
▁irregular	-4221
▁materials	-4222
▁medicinal	-4223
▁misquoted	-4224
▁multitude	-4225
▁operating	-4226
▁optimised	-4227
▁organisms	-4228
▁paradigms	-4229
▁performed	-4230
▁philology	-4231
▁placement	-4232
▁positions	-4233
▁practical	-4234
▁predicted	-4235
▁presented	-4236
▁primarily	-4237
▁providing	-4238
▁quadratic	-4239
▁reasoning	-4240
▁sanguinis	-4241
▁scripting	-4242
▁simulated	-4243
▁specialty	-4244
▁specimens	-4245
▁streaming	-4246
▁surveying	-4247
▁technical	-4248
▁uncertain	-4249
▁utilities	-4250
▁whistling	-4251
▁worldwide	-4252
dimensional	-4253
nucleotides	-4254
▁Background	-4255
▁Bioorganic	-4256
▁Comparison	-4257
▁Complexity	-4258
▁Conference	-4259
▁Coordinate	-4260
▁Copenhagen	-4261
▁Metacritic	-4262
▁Miniseries	-4263
▁Multiflush	-4264
▁Pittsburgh	-4265
▁Processing	-4266
▁Production	-4267
▁Providence	-4268
▁Publishing	-4269
▁Scientific	-4270
▁Sequential	-4271
▁Simplified	-4272
▁Stochastic	-4273
▁Television	-4274
▁Washington	-4275
▁Wiktionary	-4276
▁activities	-4277
▁adaptation	-4278
▁aggregator	-4279
▁appearance	-4280
▁applicable	-4281
▁assemblies	-4282
▁attempting	-4283
▁benefiting	-4284
▁biomedical	-4285
▁biophysics	-4286
▁capability	-4287
▁cheatsheet	-4288
▁colleagues	-4289
▁comparison	-4290
▁complexity	-4291
▁composites	-4292
▁comprising	-4293
▁contention	-4294
▁convenient	-4295
▁convention	-4296
▁coroutines	-4297
▁decreasing	-4298
▁derivative	-4299
▁describing	-4300
▁determined	-4301
▁dimensions	-4302
▁discipline	-4303
▁discovered	-4304
▁documented	-4305
▁electrical	-4306
▁electronic	-4307
▁embeddings	-4308
▁embryology	-4309
▁executives	-4310
▁explaining	-4311
▁expressive	-4312
▁functional	-4313
▁herbicides	-4314
▁heuristics	-4315
▁homologous	-4316
▁housewives	-4317
▁indicating	-4318
▁infectious	-4319
▁inherently	-4320
▁interfaces	-4321
▁literature	-4322
▁mechanisms	-4323
▁metabolome	-4324
▁miniseries	-4325
▁multilayer	-4326
▁obligation	-4327
▁originally	-4328
▁originated	-4329
▁perceptron	-4330
▁physiology	-4331
▁population	-4332
▁pragmatics	-4333
▁prediction	-4334
▁presumably	-4335
▁production	-4336
▁properties	-4337
▁references	-4338
▁regulating	-4339
▁regulation	-4340
▁relatively	-4341
▁repetition	-4342
▁repurposed	-4343
▁researcher	-4344
▁researches	-4345
▁responders	-4346
▁restricted	-4347
▁satisfying	-4348
▁scientists	-4349
▁signalling	-4350
▁signifying	-4351
▁simplifies	-4352
▁statistics	-4353
▁stochastic	-4354
▁subjective	-4355
▁subprogram	-4356
▁techniques	-4357
▁television	-4358
▁throughout	-4359
▁toxicology	-4360
▁translated	-4361
▁ultimately	-4362
▁usefulness	-4363
standardized	-4364
▁Achievement	-4365
▁Biophysical	-4366
▁Brotherhood	-4367
▁Categorical	-4368
▁Constructed	-4369
▁Directorial	-4370
▁Discography	-4371
▁Electronics	-4372
▁Experiments	-4373
▁Identifying	-4374
▁Instruments	-4375
▁Interlingua	-4376
▁Medications	-4377
▁Nonstandard	-4378
▁Operational	-4379
▁Outstanding	-4380
▁Theoretical	-4381
▁acquisition	-4382
▁algorithmic	-4383
▁application	-4384
▁categorical	-4385
▁combination	-4386
▁competition	-4387
▁conjunction	-4388
▁constraints	-4389
▁constructor	-4390
▁contributes	-4391
▁convenience	-4392
▁cornerstone	-4393
▁counterpart	-4394
▁demonstrate	-4395
▁description	-4396
▁discoveries	-4397
▁distinction	-4398
▁efficiently	-4399
▁electronics	-4400
▁environment	-4401
▁exemplifies	-4402
▁feedforward	-4403
▁grammatical	-4404
▁individuals	-4405
▁informatics	-4406
▁ingredients	-4407
▁initializes	-4408
▁interpreter	-4409
▁iteratively	-4410
▁microscopic	-4411
▁multinomial	-4412
▁nominations	-4413
▁obstruction	-4414
▁parallelism	-4415
▁parentclass	-4416
▁placeholder	-4417
▁predictions	-4418
▁probability	-4419
▁projections	-4420
▁purportedly	-4421
▁recursively	-4422
▁replication	-4423
▁statistical	-4424
▁superlative	-4425
▁surrounding	-4426
▁tentatively	-4427
▁topological	-4428
▁translation	-4429
▁transposing	-4430
▁undesirable	-4431
▁unimportant	-4432
connectionist	-4433
▁Applications	-4434
▁Distribution	-4435
▁MSECriterion	-4436
▁Mathematical	-4437
▁Metalanguage	-4438
▁Relationship	-4439
▁Representing	-4440
▁accomplished	-4441
▁asynchronous	-4442
▁bioinorganic	-4443
▁cytogenetics	-4444
▁dictionaries	-4445
▁distribution	-4446
▁fluctuations	-4447
▁historically	-4448
▁implementing	-4449
▁insecticides	-4450
▁interactions	-4451
▁intermediate	-4452
▁introduction	-4453
▁introductory	-4454
▁learningRate	-4455
▁microbiology	-4456
▁organization	-4457
▁parasitology	-4458
▁polymorphism	-4459
▁postgraduate	-4460
▁prescriptive	-4461
▁representing	-4462
▁semantically	-4463
▁technologies	-4464
▁universities	-4465
▁unresponsive	-4466
ranscriptomics	-4467
▁Entertainment	-4468
▁Massachusetts	-4469
▁Streptococcus	-4470
▁Undergraduate	-4471
▁Understanding	-4472
▁backpropagate	-4473
▁biostatistics	-4474
▁biotechnology	-4475
▁collaborating	-4476
▁computational	-4477
▁distinguished	-4478
▁distributions	-4479
▁entertainment	-4480
▁fertilisation	-4481
▁formalization	-4482
▁incrementally	-4483
▁investigating	-4484
▁metasyntactic	-4485
▁parameterised	-4486
▁relationships	-4487
▁serialization	-4488
▁technological	-4489
▁transcriptome	-4490
▁undergraduate	-4491
▁vocalizations	-4492
▁Communications	-4493
▁bioinformatics	-4494
▁carcinogenesis	-4495
▁disambiguation	-4496
▁identification	-4497
▁metalloenzymes	-4498
▁prescriptivism	-4499
▁regularization	-4500
▁transliterated	-4501
▁backpropagating	-4502
▁implementations	-4503
▁interchangeably	-4504
▁ophthalmologist	-4505
▁representations	-4506
▁specializations	-4507
21	-4508
70	-4509
Mu	-4510
Pr	-4511
RC	-4512
VL	-4513
Wa	-4514
ca	-4515
eu	-4516
gR	-4517
ib	-4518
kt	-4519
nu	-4520
ny	-4521
yb	-4522
嘉邦	-4523
200	-4524
38,	-4525
96,	-4526
98,	-4527
Ach	-4528
Cas	-4529
CoC	-4530
Cor	-4531
Dom	-4532
For	-4533
MPL	-4534
Met	-4535
NIS	-4536
OOB	-4537
Our	-4538
Out	-4539
Sus	-4540
TMR	-4541
Tas	-4542
agg	-4543
alt	-4544
anç	-4545
asu	-4546
awt	-4547
axa	-4548
bas	-4549
cas	-4550
cer	-4551
chn	-4552
com	-4553
cop	-4554
cti	-4555
cts	-4556
eca	-4557
enz	-4558
eom	-4559
etr	-4560
ety	-4561
ftw	-4562
get	-4563
gro	-4564
ift	-4565
iom	-4566
ira	-4567
isc	-4568
itz	-4569
jad	-4570
ldw	-4571
lem	-4572
leo	-4573
let	-4574
lev	-4575
lit	-4576
lle	-4577
lro	-4578
lub	-4579
mag	-4580
mem	-4581
mol	-4582
nam	-4583
nct	-4584
non	-4585
nuc	-4586
oad	-4587
oob	-4588
pas	-4589
pet	-4590
rab	-4591
rch	-4592
reo	-4593
rev	-4594
rob	-4595
rod	-4596
rog	-4597
rou	-4598
rro	-4599
BQ	-4600
Ca	-4601
Ot	-4602
SQ	-4603
dd	-4604
fi	-4605
lw	-4606
Aus	-4607
Den	-4608
Dre	-4609
Lim	-4610
Pit	-4611
War	-4612
Yas	-4613
alp	-4614
ara	-4615
dre	-4616
erl	-4617
esp	-4618
far	-4619
har	-4620
iet	-4621
itt	-4622
mit	-4623
mus	-4624
oar	-4625
omb	-4626
pli	-4627
pol	-4628
rag	-4629
rea	-4630
rep	-4631
rre	-4632
scr	-4633
set	-4634
sit	-4635
syl	-4636
tab	-4637
tax	-4638
tre	-4639
tsb	-4640
uaR	-4641
uag	-4642
uar	-4643
urg	-4644
usu	-4645
uts	-4646
utt	-4647
utu	-4648
vas	-4649
wab	-4650
war	-4651
xit	-4652
xyz	-4653
yst	-4654
zho	-4655
zur	-4656
▁13	-4657
▁Aj	-4658
▁Au	-4659
▁CS	-4660
▁Ce	-4661
▁IC	-4662
▁Lu	-4663
▁Na	-4664
▁Po	-4665
▁Pu	-4666
▁QR	-4667
▁SA	-4668
▁Sa	-4669
▁Sc	-4670
▁Sl	-4671
▁So	-4672
▁TM	-4673
▁Ta	-4674
▁We	-4675
▁Yu	-4676
▁br	-4677
▁da	-4678
▁fe	-4679
▁lu	-4680
▁ml	-4681
▁mo	-4682
▁mu	-4683
▁pa	-4684
▁pi	-4685
▁po	-4686
▁pu	-4687
▁wr	-4688
▁ye	-4689
FOOB	-4690
Hist	-4691
PQRS	-4692
Sing	-4693
UBAR	-4694
Viro	-4695
agin	-4696
aigh	-4697
airs	-4698
aiti	-4699
Ar	-4700
Je	-4701
Sl	-4702
Ya	-4703
gd	-4704
xi	-4705
CoP	-4706
Has	-4707
Lar	-4708
Res	-4709
Sin	-4710
Wal	-4711
Whe	-4712
[..	-4713
alu	-4714
bal	-4715
ctl	-4716
dar	-4717
eab	-4718
eal	-4719
edi	-4720
edl	-4721
edu	-4722
eph	-4723
gal	-4724
gui	-4725
hal	-4726
mic	-4727
rec	-4728
rov	-4729
sus	-4730
tag	-4731
tal	-4732
tas	-4733
tem	-4734
uin	-4735
urc	-4736
var	-4737
wen	-4738
▁hu	-4739
▁ou	-4740
allo	-4741
ambe	-4742
anam	-4743
arce	-4744
arin	-4745
arli	-4746
ashi	-4747
asyn	-4748
atev	-4749
atur	-4750
awty	-4751
axon	-4752
bigu	-4753
bing	-4754
blem	-4755
book	-4756
chus	-4757
cter	-4758
ctic	-4759
dent	-4760
dust	-4761
edge	-4762
edit	-4763
educ	-4764
efer	-4765
eigh	-4766
elds	-4767
elin	-4768
emor	-4769
enet	-4770
enin	-4771
enom	-4772
eral	-4773
esul	-4774
eter	-4775
etit	-4776
evin	-4777
ewor	-4778
form	-4779
fuln	-4780
geab	-4781
gent	-4782
gist	-4783
grad	-4784
gres	-4785
guag	-4786
gust	-4787
hell	-4788
hist	-4789
icon	-4790
iews	-4791
inar	-4792
inga	-4793
ingd	-4794
ingl	-4795
ingt	-4796
inin	-4797
insp	-4798
irty	-4799
15	-4800
24	-4801
As	-4802
HL	-4803
Ic	-4804
ng	-4805
sC	-4806
tb	-4807
zi	-4808
Act	-4809
Eis	-4810
Hal	-4811
Lan	-4812
Med	-4813
Vis	-4814
ben	-4815
can	-4816
dan	-4817
dis	-4818
eti	-4819
his	-4820
hit	-4821
isC	-4822
isk	-4823
iso	-4824
iss	-4825
isu	-4826
itu	-4827
kin	-4828
len	-4829
lis	-4830
mis	-4831
mun	-4832
oen	-4833
pee	-4834
rib	-4835
sif	-4836
sis	-4837
tar	-4838
tis	-4839
wis	-4840
xam	-4841
zed	-4842
▁IO	-4843
▁ca	-4844
▁ce	-4845
▁cr	-4846
▁fo	-4847
▁me	-4848
▁si	-4849
▁wa	-4850
atri	-4851
ctur	-4852
eran	-4853
eris	-4854
inen	-4855
isam	-4856
isen	-4857
isit	-4858
itic	-4859
kill	-4860
kuni	-4861
leas	-4862
lect	-4863
lion	-4864
lmer	-4865
luct	-4866
mail	-4867
mars	-4868
mpic	-4869
nter	-4870
ocum	-4871
onar	-4872
onom	-4873
orag	-4874
orat	-4875
oren	-4876
oret	-4877
orit	-4878
ovak	-4879
oved	-4880
pful	-4881
phas	-4882
ping	-4883
plin	-4884
pose	-4885
pret	-4886
ptim	-4887
publ	-4888
quen	-4889
radu	-4890
ramm	-4891
reat	-4892
rele	-4893
rest	-4894
rice	-4895
ridg	-4896
rien	-4897
scal	-4898
scri	-4899
95	-4900
AC	-4901
Am	-4902
Ce	-4903
Gu	-4904
Li	-4905
RN	-4906
ku	-4907
rw	-4908
xa	-4909
Bro	-4910
Dan	-4911
Fan	-4912
Han	-4913
Les	-4914
Mar	-4915
Pen	-4916
Ric	-4917
San	-4918
Ten	-4919
Van	-4920
Var	-4921
bol	-4922
des	-4923
dic	-4924
dul	-4925
esu	-4926
fuc	-4927
gic	-4928
hic	-4929
icG	-4930
ici	-4931
icl	-4932
ico	-4933
ito	-4934
kes	-4935
kun	-4936
lan	-4937
lar	-4938
lic	-4939
mes	-4940
nes	-4941
pan	-4942
par	-4943
tes	-4944
tic	-4945
uan	-4946
uen	-4947
urs	-4948
yin	-4949
zes	-4950
▁86	-4951
▁cu	-4952
▁tw	-4953
ctly	-4954
eled	-4955
ener	-4956
erim	-4957
etac	-4958
etas	-4959
ethe	-4960
etwe	-4961
heet	-4962
here	-4963
ilab	-4964
istl	-4965
istr	-4966
mine	-4967
ompr	-4968
oric	-4969
scru	-4970
sign	-4971
sing	-4972
sion	-4973
sist	-4974
sman	-4975
sper	-4976
ston	-4977
sued	-4978
swer	-4979
tern	-4980
thal	-4981
tles	-4982
trol	-4983
uild	-4984
uist	-4985
ullm	-4986
umab	-4987
upon	-4988
urgh	-4989
urit	-4990
urro	-4991
ursu	-4992
urve	-4993
usag	-4994
used	-4995
uses	-4996
uset	-4997
ustr	-4998
utiv	-4999
33	-5000
65	-5001
QF	-5002
Sp	-5003
We	-5004
Wi	-5005
Yo	-5006
Yu	-5007
cc	-5008
di	-5009
sl	-5010
vo	-5011
▁q	-5012
Cre	-5013
Der	-5014
Gat	-5015
His	-5016
Hoo	-5017
Kon	-5018
Lat	-5019
Man	-5020
Mer	-5021
Nat	-5022
Nor	-5023
Qat	-5024
Sar	-5025
Was	-5026
arC	-5027
asi	-5028
ats	-5029
bat	-5030
bor	-5031
chr	-5032
cou	-5033
ger	-5034
han	-5035
hat	-5036
lat	-5037
lec	-5038
lym	-5039
mar	-5040
nat	-5041
ogo	-5042
orc	-5043
por	-5044
rat	-5045
ret	-5046
sat	-5047
sso	-5048
ste	-5049
tat	-5050
uat	-5051
use	-5052
vor	-5053
wor	-5054
ype	-5055
▁Af	-5056
▁Fa	-5057
▁la	-5058
Wing	-5059
anic	-5060
athe	-5061
cogn	-5062
ctor	-5063
enst	-5064
heor	-5065
isin	-5066
pear	-5067
pion	-5068
real	-5069
redu	-5070
rent	-5071
ulat	-5072
uxil	-5073
uzho	-5074
vail	-5075
vans	-5076
veni	-5077
verl	-5078
vion	-5079
witc	-5080
xing	-5081
yber	-5082
ydne	-5083
ylog	-5084
▁Ash	-5085
▁Aus	-5086
▁Bea	-5087
▁Can	-5088
▁Car	-5089
▁Che	-5090
▁Com	-5091
▁EPF	-5092
▁Eng	-5093
▁Haw	-5094
▁ICM	-5095
▁Jam	-5096
▁Jej	-5097
▁MSE	-5098
▁Mik	-5099
("	-5100
01	-5101
20	-5102
Ac	-5103
Aj	-5104
Al	-5105
Cr	-5106
Cz	-5107
EP	-5108
Ed	-5109
Fa	-5110
Fo	-5111
Go	-5112
IB	-5113
Ko	-5114
LA	-5115
LR	-5116
ML	-5117
Po	-5118
Sh	-5119
Wo	-5120
dv	-5121
dy	-5122
ff	-5123
gt	-5124
lk	-5125
oP	-5126
pm	-5127
pp	-5128
rv	-5129
ss	-5130
va	-5131
yo	-5132
yt	-5133
Bal	-5134
Che	-5135
Ele	-5136
Non	-5137
chi	-5138
dig	-5139
dus	-5140
edd	-5141
enc	-5142
erp	-5143
hre	-5144
ien	-5145
nic	-5146
oin	-5147
osp	-5148
sal	-5149
sig	-5150
vit	-5151
▁Ca	-5152
▁am	-5153
▁ci	-5154
▁ve	-5155
Witt	-5156
erly	-5157
hips	-5158
indy	-5159
itut	-5160
lark	-5161
obal	-5162
omol	-5163
orab	-5164
phis	-5165
quad	-5166
sues	-5167
tero	-5168
▁Cas	-5169
▁Len	-5170
▁Mul	-5171
▁NIS	-5172
▁Nul	-5173
▁Per	-5174
▁Pul	-5175
▁Ric	-5176
▁SEE	-5177
▁Sar	-5178
▁Sig	-5179
▁Smo	-5180
▁Sol	-5181
▁Son	-5182
▁Sus	-5183
▁Tat	-5184
▁Ten	-5185
▁Van	-5186
▁Whe	-5187
▁Whi	-5188
▁Yas	-5189
▁Zen	-5190
▁[..	-5191
▁ani	-5192
▁ans	-5193
▁aro	-5194
▁asp	-5195
▁cal	-5196
▁cat	-5197
▁cen	-5198
▁cer	-5199
.]	-5200
04	-5201
28	-5202
Dr	-5203
Eu	-5204
Fi	-5205
Le	-5206
Ma	-5207
No	-5208
Qu	-5209
Sa	-5210
Zo	-5211
fu	-5212
je	-5213
ka	-5214
lg	-5215
nl	-5216
nm	-5217
oC	-5218
pa	-5219
pi	-5220
rm	-5221
rt	-5222
sh	-5223
sy	-5224
tt	-5225
▁#	-5226
Com	-5227
Min	-5228
Now	-5229
gho	-5230
ick	-5231
kel	-5232
ksh	-5233
oat	-5234
onf	-5235
oro	-5236
orw	-5237
oul	-5238
pur	-5239
rus	-5240
sen	-5241
son	-5242
tor	-5243
uru	-5244
xas	-5245
yet	-5246
▁Fe	-5247
▁Mo	-5248
▁bl	-5249
▁te	-5250
asur	-5251
atas	-5252
ciat	-5253
eans	-5254
erat	-5255
imis	-5256
inet	-5257
itis	-5258
ledg	-5259
tent	-5260
tert	-5261
uing	-5262
vemb	-5263
zing	-5264
▁Idi	-5265
▁Las	-5266
▁Sap	-5267
▁agg	-5268
▁ang	-5269
▁bor	-5270
▁cho	-5271
▁cle	-5272
▁coo	-5273
▁cro	-5274
▁dan	-5275
▁dom	-5276
▁dow	-5277
▁dur	-5278
▁dyn	-5279
▁eff	-5280
▁eng	-5281
▁fer	-5282
▁fle	-5283
▁har	-5284
▁inp	-5285
▁ion	-5286
▁iss	-5287
▁jad	-5288
▁lan	-5289
▁lar	-5290
▁lat	-5291
▁len	-5292
▁lis	-5293
▁lon	-5294
▁los	-5295
▁luc	-5296
▁mig	-5297
▁mor	-5298
▁off	-5299
13	-5300
17	-5301
23	-5302
79	-5303
99	-5304
AB	-5305
Ap	-5306
Di	-5307
Ho	-5308
Lu	-5309
MN	-5310
Na	-5311
On	-5312
Sc	-5313
Su	-5314
Vi	-5315
Za	-5316
bo	-5317
df	-5318
do	-5319
eg	-5320
fe	-5321
hu	-5322
jo	-5323
kp	-5324
mo	-5325
oa	-5326
oe	-5327
wl	-5328
xp	-5329
za	-5330
▁5	-5331
Cam	-5332
Por	-5333
Ral	-5334
Rel	-5335
Wor	-5336
alo	-5337
col	-5338
ctu	-5339
dex	-5340
dol	-5341
eon	-5342
hom	-5343
hth	-5344
iat	-5345
ikt	-5346
itc	-5347
kat	-5348
leg	-5349
nst	-5350
ori	-5351
roa	-5352
unr	-5353
▁AC	-5354
▁Su	-5355
▁Te	-5356
anag	-5357
ccur	-5358
dult	-5359
emin	-5360
entl	-5361
ging	-5362
ilad	-5363
inor	-5364
mark	-5365
odul	-5366
onin	-5367
othe	-5368
uent	-5369
uits	-5370
ulti	-5371
xper	-5372
▁Cat	-5373
▁asy	-5374
▁bes	-5375
▁che	-5376
▁oft	-5377
▁ont	-5378
▁pat	-5379
▁phy	-5380
▁san	-5381
▁sen	-5382
▁spo	-5383
▁ten	-5384
▁tho	-5385
▁too	-5386
▁tor	-5387
▁tre	-5388
▁uni	-5389
▁unl	-5390
▁ver	-5391
▁wen	-5392
▁wor	-5393
▁xyz	-5394
AMPLE	-5395
JCNLP	-5396
MISTR	-5397
OOBAR	-5398
PQRST	-5399
,7	-5400
11	-5401
35	-5402
4/	-5403
6%	-5404
Br	-5405
Dō	-5406
FL	-5407
Gh	-5408
HA	-5409
LL	-5410
OS	-5411
Ou	-5412
Ov	-5413
RE	-5414
ao	-5415
bu	-5416
cG	-5417
cr	-5418
dn	-5419
kw	-5420
my	-5421
nd	-5422
of	-5423
sp	-5424
▁=	-5425
2,7	-5426
Con	-5427
Men	-5428
agn	-5429
ani	-5430
bel	-5431
dri	-5432
ery	-5433
esi	-5434
gon	-5435
hin	-5436
ipl	-5437
jus	-5438
kag	-5439
lut	-5440
nim	-5441
odu	-5442
oic	-5443
oni	-5444
rue	-5445
sci	-5446
the	-5447
tog	-5448
tri	-5449
uir	-5450
ylv	-5451
yon	-5452
▁Ir	-5453
▁fr	-5454
▁gl	-5455
amic	-5456
ario	-5457
assa	-5458
hart	-5459
lexi	-5460
ompl	-5461
oord	-5462
resi	-5463
tell	-5464
ting	-5465
utat	-5466
ving	-5467
ympt	-5468
▁mag	-5469
▁pas	-5470
▁wit	-5471
afond	-5472
aggle	-5473
agmat	-5474
ailor	-5475
aking	-5476
alect	-5477
amily	-5478
ample	-5479
anics	-5480
antas	-5481
apted	-5482
arent	-5483
atent	-5484
atran	-5485
atric	-5486
atshe	-5487
babil	-5488
bines	-5489
butes	-5490
cadem	-5491
cause	-5492
celon	-5493
cepts	-5494
cribe	-5495
cting	-5496
ction	-5497
ctory	-5498
ctual	-5499
,0	-5500
03	-5501
07	-5502
38	-5503
AS	-5504
An	-5505
CN	-5506
Ch	-5507
Gi	-5508
Ju	-5509
LE	-5510
Pe	-5511
QR	-5512
RF	-5513
Up	-5514
ek	-5515
gn	-5516
ip	-5517
li	-5518
ma	-5519
ra	-5520
rg	-5521
wi	-5522
ya	-5523
yu	-5524
Cal	-5525
Can	-5526
Cro	-5527
Des	-5528
Dis	-5529
Gro	-5530
Hol	-5531
Lel	-5532
arr	-5533
fit	-5534
gth	-5535
hro	-5536
lin	-5537
lso	-5538
men	-5539
oec	-5540
omi	-5541
onl	-5542
ono	-5543
rar	-5544
ref	-5545
rop	-5546
ums	-5547
whe	-5548
zab	-5549
▁49	-5550
▁Ra	-5551
▁Sp	-5552
▁dr	-5553
▁ti	-5554
atar	-5555
entu	-5556
gium	-5557
ishe	-5558
ison	-5559
odel	-5560
sess	-5561
tact	-5562
uton	-5563
▁Dur	-5564
▁ICL	-5565
▁Som	-5566
▁alw	-5567
▁bet	-5568
▁hel	-5569
▁nom	-5570
▁org	-5571
▁sat	-5572
ariab	-5573
dress	-5574
earch	-5575
eatur	-5576
ecaus	-5577
edded	-5578
edfor	-5579
eight	-5580
ening	-5581
ensel	-5582
entat	-5583
enter	-5584
entis	-5585
entit	-5586
enzym	-5587
erent	-5588
erfor	-5589
eriod	-5590
erion	-5591
erned	-5592
esent	-5593
esian	-5594
esign	-5595
etail	-5596
eters	-5597
fecti	-5598
feren	-5599
05	-5600
Dh	-5601
EM	-5602
FQ	-5603
GD	-5604
Id	-5605
Ja	-5606
La	-5607
Me	-5608
Of	-5609
Sm	-5610
ba	-5611
cs	-5612
dg	-5613
hr	-5614
ml	-5615
mu	-5616
no	-5617
ps	-5618
rl	-5619
sf	-5620
tc	-5621
tg	-5622
tl	-5623
ém	-5624
▁8	-5625
32,	-5626
Fut	-5627
Las	-5628
Mat	-5629
Pre	-5630
Ser	-5631
Som	-5632
Wil	-5633
adi	-5634
agu	-5635
arn	-5636
atu	-5637
bed	-5638
cem	-5639
cep	-5640
cim	-5641
cin	-5642
eds	-5643
inh	-5644
ior	-5645
iti	-5646
lea	-5647
ler	-5648
onv	-5649
ows	-5650
que	-5651
won	-5652
▁Aw	-5653
▁ea	-5654
▁gr	-5655
Vide	-5656
alen	-5657
aril	-5658
atin	-5659
dver	-5660
emer	-5661
erms	-5662
ifor	-5663
itle	-5664
onen	-5665
oses	-5666
rite	-5667
sted	-5668
terf	-5669
vere	-5670
▁anc	-5671
▁bef	-5672
▁hav	-5673
▁nat	-5674
▁obj	-5675
antag	-5676
arine	-5677
entur	-5678
fying	-5679
gramm	-5680
helor	-5681
ician	-5682
icrob	-5683
icros	-5684
idean	-5685
idely	-5686
idged	-5687
iewed	-5688
iffer	-5689
iflus	-5690
igmat	-5691
iment	-5692
inate	-5693
inbur	-5694
ineer	-5695
inese	-5696
infor	-5697
inger	-5698
ining	-5699
(0	-5700
08	-5701
14	-5702
78	-5703
Ad	-5704
CH	-5705
Cl	-5706
Ge	-5707
HE	-5708
Hi	-5709
Is	-5710
It	-5711
Jo	-5712
NG	-5713
Re	-5714
St	-5715
Un	-5716
VI	-5717
de	-5718
ds	-5719
du	-5720
ei	-5721
eo	-5722
gr	-5723
hy	-5724
lf	-5725
lr	-5726
ls	-5727
lu	-5728
na	-5729
nv	-5730
oj	-5731
rc	-5732
rp	-5733
wa	-5734
Bes	-5735
Pol	-5736
Tor	-5737
ams	-5738
bro	-5739
cto	-5740
ees	-5741
ett	-5742
gus	-5743
ina	-5744
ini	-5745
job	-5746
mom	-5747
tid	-5748
vat	-5749
vey	-5750
vic	-5751
yan	-5752
▁35	-5753
▁AM	-5754
▁De	-5755
▁af	-5756
▁ai	-5757
▁ep	-5758
Word	-5759
agat	-5760
arri	-5761
asic	-5762
atab	-5763
erag	-5764
erin	-5765
erve	-5766
esen	-5767
etal	-5768
fond	-5769
guin	-5770
itar	-5771
mith	-5772
olec	-5773
olic	-5774
ouch	-5775
resc	-5776
tion	-5777
xion	-5778
▁Der	-5779
▁Obl	-5780
▁Tas	-5781
▁cur	-5782
▁mic	-5783
ctors	-5784
inted	-5785
ionar	-5786
ionic	-5787
ionis	-5788
irely	-5789
istan	-5790
istic	-5791
ithin	-5792
ithms	-5793
itian	-5794
itics	-5795
iting	-5796
itled	-5797
lizab	-5798
lling	-5799
22	-5800
25	-5801
AI	-5802
Do	-5803
EC	-5804
Ex	-5805
Fe	-5806
Ki	-5807
MP	-5808
MS	-5809
PV	-5810
Se	-5811
ck	-5812
dw	-5813
dé	-5814
eq	-5815
fa	-5816
fo	-5817
gm	-5818
hn	-5819
ju	-5820
lN	-5821
la	-5822
lt	-5823
mn	-5824
nK	-5825
nk	-5826
nr	-5827
rf	-5828
rs	-5829
sN	-5830
sq	-5831
we	-5832
xc	-5833
yc	-5834
yi	-5835
Bon	-5836
Car	-5837
Jan	-5838
Lis	-5839
aii	-5840
erd	-5841
fin	-5842
hus	-5843
inb	-5844
isa	-5845
lid	-5846
mul	-5847
olv	-5848
ras	-5849
req	-5850
tit	-5851
wer	-5852
yer	-5853
yol	-5854
ōch	-5855
Dist	-5856
King	-5857
abat	-5858
airy	-5859
akah	-5860
alle	-5861
aral	-5862
ceiv	-5863
earc	-5864
erst	-5865
ffic	-5866
heal	-5867
init	-5868
itho	-5869
lism	-5870
reas	-5871
regu	-5872
rese	-5873
utin	-5874
vary	-5875
▁les	-5876
ental	-5877
ented	-5878
escri	-5879
ingle	-5880
mains	-5881
matri	-5882
mbigu	-5883
mbols	-5884
ments	-5885
meric	-5886
metry	-5887
mical	-5888
mined	-5889
munic	-5890
nalys	-5891
nthes	-5892
oenig	-5893
olman	-5894
oloss	-5895
omeon	-5896
ommon	-5897
onatt	-5898
opped	-5899
(#	-5900
0.	-5901
02	-5902
06	-5903
09	-5904
16	-5905
18	-5906
3.	-5907
32	-5908
5)	-5909
63	-5910
9)	-5911
97	-5912
98	-5913
AA	-5914
BA	-5915
Bo	-5916
CO	-5917
DA	-5918
Es	-5919
Ev	-5920
Hy	-5921
IG	-5922
IM	-5923
JI	-5924
Mi	-5925
QN	-5926
bp	-5927
kg	-5928
lv	-5929
me	-5930
xo	-5931
Gen	-5932
Get	-5933
Len	-5934
Tan	-5935
Win	-5936
ato	-5937
cqu	-5938
dap	-5939
ems	-5940
eno	-5941
hor	-5942
jur	-5943
nth	-5944
oft	-5945
ois	-5946
pir	-5947
rid	-5948
roj	-5949
rst	-5950
stg	-5951
ves	-5952
win	-5953
▁Do	-5954
▁Jo	-5955
▁Se	-5956
▁er	-5957
738,	-5958
Shaw	-5959
blic	-5960
chiv	-5961
erge	-5962
eric	-5963
igit	-5964
ingr	-5965
oron	-5966
terp	-5967
uded	-5968
unab	-5969
▁Alb	-5970
▁Nuc	-5971
▁Ser	-5972
▁net	-5973
▁nod	-5974
▁por	-5975
▁wer	-5976
Langu	-5977
agram	-5978
assif	-5979
erial	-5980
ident	-5981
organ	-5982
ormat	-5983
orpor	-5984
oshik	-5985
oving	-5986
owled	-5987
pects	-5988
peech	-5989
pport	-5990
press	-5991
quire	-5992
ramew	-5993
ransl	-5994
ransp	-5995
reaks	-5996
regat	-5997
regul	-5998
resum	-5999
10	-6000
4-	-6001
68	-6002
Ab	-6003
Au	-6004
Av	-6005
Ba	-6006
Cu	-6007
De	-6008
Du	-6009
IJ	-6010
If	-6011
Lo	-6012
NP	-6013
OB	-6014
QP	-6015
Sy	-6016
Wh	-6017
da	-6018
dr	-6019
fy	-6020
hl	-6021
hm	-6022
lb	-6023
nh	-6024
nj	-6025
oh	-6026
ox	-6027
rh	-6028
sk	-6029
tz	-6030
uf	-6031
Hon	-6032
Lor	-6033
Pat	-6034
ads	-6035
aig	-6036
ala	-6037
amb	-6038
cal	-6039
err	-6040
gis	-6041
hop	-6042
hos	-6043
icr	-6044
inc	-6045
kil	-6046
lom	-6047
mon	-6048
nch	-6049
ner	-6050
nit	-6051
pat	-6052
roi	-6053
tro	-6054
ues	-6055
▁ic	-6056
▁mi	-6057
▁ow	-6058
anes	-6059
eman	-6060
entc	-6061
hort	-6062
imen	-6063
isod	-6064
memb	-6065
mist	-6066
nsyl	-6067
room	-6068
viro	-6069
▁Adv	-6070
▁Mic	-6071
▁cyt	-6072
▁exc	-6073
▁pid	-6074
▁rec	-6075
▁som	-6076
acker	-6077
aract	-6078
assic	-6079
empts	-6080
erged	-6081
lated	-6082
nemon	-6083
ource	-6084
polog	-6085
roach	-6086
roken	-6087
ronic	-6088
roups	-6089
rovid	-6090
ructu	-6091
scruf	-6092
sland	-6093
sment	-6094
strum	-6095
teins	-6096
thony	-6097
tical	-6098
tomic	-6099
2.	-6100
Bi	-6101
Ea	-6102
Ei	-6103
El	-6104
FT	-6105
FU	-6106
Fl	-6107
Fr	-6108
Fu	-6109
GS	-6110
Ga	-6111
Gl	-6112
HI	-6113
IC	-6114
II	-6115
Ir	-6116
MD	-6117
Ne	-6118
Ni	-6119
Nu	-6120
OV	-6121
Ol	-6122
Op	-6123
RA	-6124
Rh	-6125
Si	-6126
Ty	-6127
Ze	-6128
aJ	-6129
iq	-6130
kn	-6131
sb	-6132
sn	-6133
ui	-6134
uv	-6135
wr	-6136
yT	-6137
ye	-6138
yp	-6139
zh	-6140
===	-6141
Bil	-6142
Dic	-6143
Don	-6144
Par	-6145
Pin	-6146
Roc	-6147
atc	-6148
che	-6149
cut	-6150
erb	-6151
hag	-6152
iel	-6153
inp	-6154
isf	-6155
isi	-6156
nom	-6157
oan	-6158
oma	-6159
rin	-6160
ser	-6161
sor	-6162
uot	-6163
ved	-6164
▁28	-6165
▁HI	-6166
▁ae	-6167
▁ta	-6168
dens	-6169
eing	-6170
eitz	-6171
eres	-6172
icat	-6173
ivit	-6174
ocal	-6175
oget	-6176
rams	-6177
rict	-6178
▁Cec	-6179
▁How	-6180
▁Nig	-6181
▁Zot	-6182
▁car	-6183
▁exe	-6184
▁sig	-6185
▁tar	-6186
entif	-6187
eomet	-6188
fined	-6189
onger	-6190
orner	-6191
trict	-6192
tsbur	-6193
ublis	-6194
ucked	-6195
uctor	-6196
uence	-6197
ughts	-6198
ugust	-6199
19	-6200
64	-6201
Em	-6202
Ke	-6203
Or	-6204
Pa	-6205
WV	-6206
[.	-6207
]"	-6208
aR	-6209
bt	-6210
cq	-6211
dN	-6212
dl	-6213
dm	-6214
ev	-6215
ga	-6216
gg	-6217
gs	-6218
iO	-6219
np	-6220
rb	-6221
sm	-6222
xy	-6223
yd	-6224
yf	-6225
zy	-6226
zz	-6227
Bor	-6228
Mas	-6229
Son	-6230
ank	-6231
bin	-6232
den	-6233
dit	-6234
eer	-6235
ene	-6236
eri	-6237
hee	-6238
hel	-6239
heo	-6240
heu	-6241
hey	-6242
inv	-6243
lon	-6244
min	-6245
nin	-6246
onc	-6247
pin	-6248
ril	-6249
tom	-6250
tur	-6251
ued	-6252
xes	-6253
xin	-6254
zer	-6255
▁Je	-6256
▁li	-6257
▁tu	-6258
alit	-6259
amen	-6260
aram	-6261
atow	-6262
edis	-6263
ench	-6264
erch	-6265
igen	-6266
ince	-6267
inic	-6268
itch	-6269
lman	-6270
mand	-6271
onal	-6272
ortu	-6273
term	-6274
▁dev	-6275
▁lif	-6276
▁mis	-6277
▁sel	-6278
levis	-6279
obile	-6280
ologi	-6281
ologo	-6282
otech	-6283
resen	-6284
uhari	-6285
ultin	-6286
undes	-6287
unior	-6288
unter	-6289
using	-6290
uxili	-6291
uzhou	-6292
veren	-6293
verse	-6294
views	-6295
volut	-6296
volve	-6297
witch	-6298
ynerg	-6299
ED	-6300
az	-6301
nb	-6302
ws	-6303
Gol	-6304
Ice	-6305
Too	-6306
bon	-6307
ece	-6308
erc	-6309
fon	-6310
has	-6311
iag	-6312
inf	-6313
itr	-6314
lol	-6315
nol	-6316
oci	-6317
ola	-6318
old	-6319
oli	-6320
olk	-6321
olm	-6322
olo	-6323
ols	-6324
olu	-6325
oly	-6326
onj	-6327
ool	-6328
pon	-6329
rok	-6330
uad	-6331
unc	-6332
urn	-6333
wid	-6334
xic	-6335
▁Le	-6336
▁ha	-6337
▁jo	-6338
CNLP	-6339
alia	-6340
aliz	-6341
aryl	-6342
fact	-6343
icol	-6344
ilit	-6345
itol	-6346
know	-6347
mens	-6348
olis	-6349
olle	-6350
olom	-6351
omat	-6352
onis	-6353
orce	-6354
osem	-6355
sity	-6356
tand	-6357
▁Cal	-6358
▁Cro	-6359
▁Cur	-6360
▁Jap	-6361
▁Les	-6362
▁Lew	-6363
▁Los	-6364
▁Min	-6365
▁dic	-6366
▁gre	-6367
▁sit	-6368
▁squ	-6369
anual	-6370
owing	-6371
teres	-6372
utton	-6373
ydney	-6374
▁1997	-6375
▁1999	-6376
▁2002	-6377
▁2004	-6378
▁2006	-6379
▁2007	-6380
▁2008	-6381
▁2010	-6382
▁2013	-6383
▁2015	-6384
▁Acad	-6385
▁Alta	-6386
▁Appl	-6387
▁Asso	-6388
▁Bonn	-6389
▁Cart	-6390
▁Chem	-6391
▁Coec	-6392
▁Conc	-6393
▁Crit	-6394
▁Dict	-6395
▁Dire	-6396
▁DisC	-6397
▁Disc	-6398
▁Emul	-6399
iu	-6400
ni	-6401
Bel	-6402
Jam	-6403
Nul	-6404
Pas	-6405
Zam	-6406
ama	-6407
amm	-6408
ceh	-6409
dam	-6410
del	-6411
elg	-6412
elo	-6413
elp	-6414
els	-6415
fle	-6416
ham	-6417
iam	-6418
lln	-6419
nos	-6420
rot	-6421
sel	-6422
xce	-6423
ysi	-6424
▁(0	-6425
▁AB	-6426
▁EP	-6427
▁Ea	-6428
▁Ed	-6429
▁El	-6430
▁Ep	-6431
▁Ev	-6432
▁OV	-6433
▁PH	-6434
ainm	-6435
anst	-6436
avor	-6437
core	-6438
eatt	-6439
elan	-6440
emar	-6441
erce	-6442
eren	-6443
gure	-6444
icor	-6445
ists	-6446
oane	-6447
olar	-6448
ompo	-6449
onst	-6450
stan	-6451
stat	-6452
stic	-6453
stit	-6454
utom	-6455
utst	-6456
▁Ach	-6457
▁Dal	-6458
▁Eis	-6459
▁Pas	-6460
▁Pin	-6461
▁Pol	-6462
▁Pre	-6463
▁TMR	-6464
▁giv	-6465
▁lam	-6466
▁nam	-6467
▁sam	-6468
▁wel	-6469
aming	-6470
arlie	-6471
belis	-6472
ompar	-6473
ompas	-6474
ompet	-6475
omple	-6476
ompon	-6477
omput	-6478
outin	-6479
stics	-6480
sting	-6481
ylvan	-6482
▁Batt	-6483
▁Engl	-6484
▁Epis	-6485
▁Eucl	-6486
▁Exam	-6487
▁Figu	-6488
▁Fren	-6489
▁Garm	-6490
▁Glob	-6491
▁Goog	-6492
▁Gund	-6493
▁Hany	-6494
▁Hash	-6495
▁Hist	-6496
▁Inta	-6497
▁Josh	-6498
▁Jour	-6499
MI	-6500
NE	-6501
RY	-6502
Ro	-6503
vi	-6504
Bab	-6505
Kid	-6506
Mon	-6507
Vid	-6508
Yan	-6509
Zen	-6510
aid	-6511
bet	-6512
cab	-6513
cks	-6514
emy	-6515
esc	-6516
gat	-6517
inm	-6518
irt	-6519
nor	-6520
occ	-6521
sic	-6522
▁IB	-6523
▁Il	-6524
▁MI	-6525
▁MS	-6526
▁Ma	-6527
▁Mi	-6528
▁Mu	-6529
▁Ne	-6530
▁Wi	-6531
▁au	-6532
▁hi	-6533
▁ho	-6534
▁sa	-6535
▁sq	-6536
atel	-6537
gics	-6538
guid	-6539
guit	-6540
hics	-6541
idel	-6542
iden	-6543
ider	-6544
imag	-6545
ioor	-6546
iser	-6547
olut	-6548
orid	-6549
orts	-6550
pics	-6551
reel	-6552
rely	-6553
roid	-6554
rout	-6555
tend	-6556
▁Cor	-6557
▁Den	-6558
▁Mar	-6559
▁Mas	-6560
▁Men	-6561
▁Mon	-6562
▁Mus	-6563
▁Oct	-6564
▁cel	-6565
▁hal	-6566
▁hon	-6567
▁rea	-6568
▁ref	-6569
▁req	-6570
▁rev	-6571
▁usu	-6572
andex	-6573
blems	-6574
gical	-6575
icall	-6576
iplic	-6577
joint	-6578
ptome	-6579
sical	-6580
ussed	-6581
xical	-6582
▁2003	-6583
▁2025	-6584
▁Euro	-6585
▁Ling	-6586
▁LuaJ	-6587
▁Mach	-6588
▁Modu	-6589
▁Naom	-6590
▁Oric	-6591
▁Phys	-6592
▁Pyth	-6593
▁Rail	-6594
▁Sapp	-6595
▁Sign	-6596
▁Stan	-6597
▁Stat	-6598
▁Tele	-6599
Gr	-6600
LP	-6601
Qa	-6602
Te	-6603
bs	-6604
ln	-6605
mi	-6606
tp	-6607
Fir	-6608
Him	-6609
Kan	-6610
bot	-6611
ceb	-6612
cle	-6613
cor	-6614
day	-6615
dim	-6616
emi	-6617
him	-6618
hir	-6619
hot	-6620
idu	-6621
imi	-6622
imm	-6623
irc	-6624
irs	-6625
iry	-6626
isp	-6627
mir	-6628
nem	-6629
oco	-6630
rik	-6631
rim	-6632
sem	-6633
tan	-6634
tim	-6635
upp	-6636
vem	-6637
xem	-6638
xpl	-6639
▁(#	-6640
▁Fl	-6641
▁IM	-6642
▁op	-6643
ardw	-6644
ensm	-6645
etim	-6646
gebr	-6647
heir	-6648
icid	-6649
imar	-6650
imit	-6651
irat	-6652
iron	-6653
kers	-6654
sens	-6655
tate	-6656
tics	-6657
yled	-6658
▁Hoo	-6659
▁Lar	-6660
▁Mak	-6661
▁Sem	-6662
▁Sim	-6663
▁Tan	-6664
▁aim	-6665
▁beg	-6666
▁dim	-6667
▁fir	-6668
▁hac	-6669
▁hap	-6670
▁lit	-6671
▁ori	-6672
iding	-6673
idual	-6674
onstr	-6675
stems	-6676
train	-6677
ustin	-6678
▁Unic	-6679
▁Viro	-6680
▁Walk	-6681
▁Wils	-6682
▁Wood	-6683
▁[...	-6684
▁abst	-6685
▁acad	-6686
▁anim	-6687
▁anot	-6688
▁auth	-6689
▁bact	-6690
▁biot	-6691
▁bott	-6692
▁butt	-6693
▁caus	-6694
▁cham	-6695
▁chan	-6696
▁chat	-6697
▁coat	-6698
▁coll	-6699
8.	-6700
Ha	-6701
He	-6702
IO	-6703
TV	-6704
eh	-6705
wh	-6706
yw	-6707
Ful	-6708
Jun	-6709
Log	-6710
aul	-6711
aum	-6712
bul	-6713
cio	-6714
cul	-6715
cum	-6716
eni	-6717
hoo	-6718
imu	-6719
jun	-6720
lie	-6721
log	-6722
lul	-6723
ogi	-6724
ogn	-6725
ogr	-6726
ogy	-6727
oom	-6728
oun	-6729
pic	-6730
ply	-6731
pul	-6732
rum	-6733
tho	-6734
tum	-6735
uln	-6736
umb	-6737
ume	-6738
unk	-6739
unl	-6740
yth	-6741
▁22	-6742
▁ul	-6743
Grad	-6744
With	-6745
aset	-6746
ativ	-6747
ctiv	-6748
ecti	-6749
entr	-6750
esum	-6751
icul	-6752
imul	-6753
inog	-6754
irre	-6755
ithm	-6756
kson	-6757
ogle	-6758
olul	-6759
olum	-6760
onto	-6761
orin	-6762
quis	-6763
roun	-6764
umer	-6765
unit	-6766
▁Bor	-6767
▁Jar	-6768
▁Man	-6769
▁Pun	-6770
▁cul	-6771
▁dem	-6772
▁enc	-6773
▁ful	-6774
▁log	-6775
▁mul	-6776
▁sif	-6777
asing	-6778
ogist	-6779
ptoms	-6780
▁Lind	-6781
▁Nigh	-6782
▁conn	-6783
▁conv	-6784
▁dict	-6785
▁dire	-6786
▁enti	-6787
▁exce	-6788
▁extr	-6789
▁fiel	-6790
▁forw	-6791
▁four	-6792
▁grad	-6793
▁grap	-6794
▁halv	-6795
▁hist	-6796
▁hone	-6797
▁infl	-6798
▁inhe	-6799
Be	-6800
Ph	-6801
SI	-6802
TM	-6803
ey	-6804
fr	-6805
ki	-6806
nn	-6807
Big	-6808
Dur	-6809
Nig	-6810
Not	-6811
adu	-6812
ano	-6813
ans	-6814
boo	-6815
bst	-6816
edg	-6817
ein	-6818
eve	-6819
icu	-6820
ium	-6821
ont	-6822
rig	-6823
sin	-6824
ycl	-6825
▁Dō	-6826
▁La	-6827
▁Lo	-6828
▁RE	-6829
▁Rh	-6830
▁Ro	-6831
▁dy	-6832
▁ev	-6833
▁nu	-6834
Ling	-6835
agen	-6836
ampl	-6837
bros	-6838
dres	-6839
eces	-6840
esig	-6841
olve	-6842
ques	-6843
rove	-6844
unds	-6845
▁Lap	-6846
▁Lin	-6847
▁Log	-6848
▁Lor	-6849
▁Mad	-6850
▁Res	-6851
▁alb	-6852
▁alg	-6853
▁als	-6854
▁alt	-6855
▁ano	-6856
▁bey	-6857
▁bin	-6858
▁ear	-6859
▁eas	-6860
▁fig	-6861
▁inf	-6862
▁pac	-6863
alent	-6864
asure	-6865
exist	-6866
guity	-6867
isted	-6868
nical	-6869
ovies	-6870
resiz	-6871
roces	-6872
umans	-6873
urine	-6874
▁Dere	-6875
▁Lars	-6876
▁Mole	-6877
▁aler	-6878
▁alon	-6879
▁conf	-6880
▁conj	-6881
▁init	-6882
▁leng	-6883
▁ling	-6884
▁mech	-6885
▁meth	-6886
▁migh	-6887
▁modu	-6888
▁mole	-6889
▁mout	-6890
▁numb	-6891
▁orig	-6892
▁padm	-6893
▁peop	-6894
▁perc	-6895
▁perf	-6896
▁peri	-6897
▁poss	-6898
▁pref	-6899
Oc	-6900
bj	-6901
io	-6902
nc	-6903
sa	-6904
xe	-6905
Ban	-6906
Rat	-6907
abl	-6908
bab	-6909
cad	-6910
cil	-6911
eig	-6912
hab	-6913
hil	-6914
iab	-6915
ilt	-6916
inK	-6917
lab	-6918
ney	-6919
pab	-6920
pto	-6921
tig	-6922
til	-6923
uil	-6924
xil	-6925
▁Ja	-6926
▁ma	-6927
Fant	-6928
abas	-6929
aise	-6930
alan	-6931
amil	-6932
anad	-6933
bial	-6934
cate	-6935
erab	-6936
etab	-6937
face	-6938
hant	-6939
hard	-6940
icab	-6941
igat	-6942
ilis	-6943
ilol	-6944
ilor	-6945
imil	-6946
irab	-6947
lace	-6948
olad	-6949
omen	-6950
only	-6951
owed	-6952
ract	-6953
redi	-6954
road	-6955
tant	-6956
teom	-6957
tera	-6958
terl	-6959
ters	-6960
uant	-6961
urin	-6962
util	-6963
wing	-6964
xter	-6965
▁Jan	-6966
▁hig	-6967
▁pin	-6968
▁tab	-6969
▁wil	-6970
aster	-6971
atter	-6972
erant	-6973
ganiz	-6974
lorid	-6975
orith	-6976
ptive	-6977
ranad	-6978
reter	-6979
ritis	-6980
terch	-6981
uzuru	-6982
▁7.4/	-6983
▁Sled	-6984
▁prep	-6985
▁proc	-6986
▁prog	-6987
▁proj	-6988
▁prop	-6989
▁prot	-6990
▁prov	-6991
▁ques	-6992
▁reac	-6993
▁reas	-6994
▁rest	-6995
▁scal	-6996
▁scor	-6997
▁sens	-6998
▁shar	-6999
60	-7000
Af	-7001
Pi	-7002
ok	-7003
Bar	-7004
CNL	-7005
Gar	-7006
Jar	-7007
MNL	-7008
NLL	-7009
QNL	-7010
Zot	-7011
adr	-7012
ais	-7013
anc	-7014
bry	-7015
cip	-7016
ctr	-7017
eci	-7018
iff	-7019
ifi	-7020
ifl	-7021
inn	-7022
iot	-7023
lif	-7024
nif	-7025
not	-7026
opp	-7027
orl	-7028
ote	-7029
ots	-7030
sNL	-7031
sum	-7032
tif	-7033
try	-7034
zaw	-7035
zin	-7036
▁Fi	-7037
▁gi	-7038
▁go	-7039
adig	-7040
ainn	-7041
aker	-7042
akes	-7043
arad	-7044
aran	-7045
arry	-7046
ateg	-7047
ayan	-7048
bens	-7049
chas	-7050
chem	-7051
cien	-7052
enot	-7053
ford	-7054
hers	-7055
isat	-7056
isci	-7057
lead	-7058
leot	-7059
oder	-7060
odes	-7061
once	-7062
onol	-7063
otid	-7064
pres	-7065
ryol	-7066
tens	-7067
unif	-7068
user	-7069
▁bot	-7070
▁gro	-7071
▁stu	-7072
▁sty	-7073
▁zer	-7074
athem	-7075
cient	-7076
entcl	-7077
entry	-7078
estin	-7079
eural	-7080
istry	-7081
oniqu	-7082
otion	-7083
tions	-7084
ysics	-7085
▁Grap	-7086
▁chem	-7087
▁happ	-7088
▁scri	-7089
▁slan	-7090
▁slic	-7091
▁stab	-7092
▁stan	-7093
▁stat	-7094
▁stif	-7095
▁stra	-7096
▁subs	-7097
▁symb	-7098
▁targ	-7099
93	-7100
Pu	-7101
So	-7102
si	-7103
Dal	-7104
Mic	-7105
Ver	-7106
ali	-7107
ape	-7108
aps	-7109
apt	-7110
apy	-7111
edf	-7112
eop	-7113
eos	-7114
hap	-7115
how	-7116
ids	-7117
itl	-7118
owl	-7119
pos	-7120
qui	-7121
quu	-7122
san	-7123
ups	-7124
▁(1	-7125
▁Bo	-7126
▁FT	-7127
▁Fr	-7128
▁ot	-7129
▁ov	-7130
AMPL	-7131
apab	-7132
apor	-7133
caus	-7134
cies	-7135
cram	-7136
ders	-7137
edly	-7138
enci	-7139
enti	-7140
hter	-7141
inci	-7142
ispl	-7143
olos	-7144
osen	-7145
osit	-7146
quar	-7147
quat	-7148
quot	-7149
site	-7150
tran	-7151
▁193	-7152
▁Bab	-7153
▁Bal	-7154
▁Ban	-7155
▁Bat	-7156
▁Bes	-7157
▁Bil	-7158
▁Bon	-7159
▁Fir	-7160
▁Ful	-7161
▁Jos	-7162
▁Pow	-7163
▁Uni	-7164
▁hen	-7165
▁pap	-7166
▁pow	-7167
▁tap	-7168
▁web	-7169
anese	-7170
aning	-7171
chine	-7172
holog	-7173
ingap	-7174
iolog	-7175
molog	-7176
nolog	-7177
ompos	-7178
oobar	-7179
quant	-7180
raphs	-7181
▁Line	-7182
▁cloc	-7183
▁tele	-7184
▁thei	-7185
▁thes	-7186
▁thin	-7187
▁thos	-7188
▁thre	-7189
▁tool	-7190
▁tran	-7191
▁usag	-7192
▁verb	-7193
▁viro	-7194
▁whal	-7195
▁whos	-7196
▁xyzz	-7197
0,0,0)	-7198
2,738,	-7199
12	-7200
96	-7201
Ep	-7202
by	-7203
ea	-7204
gy	-7205
mm	-7206
ou	-7207
rC	-7208
ti	-7209
uu	-7210
wt	-7211
Bat	-7212
PQR	-7213
Pro	-7214
cis	-7215
dro	-7216
git	-7217
gre	-7218
ila	-7219
rip	-7220
sof	-7221
una	-7222
uro	-7223
xed	-7224
▁17	-7225
▁Dh	-7226
▁Di	-7227
▁NL	-7228
▁Ol	-7229
▁Op	-7230
▁Or	-7231
▁Ot	-7232
▁Ov	-7233
▁sw	-7234
Yand	-7235
ards	-7236
arks	-7237
asks	-7238
cher	-7239
ells	-7240
etry	-7241
gies	-7242
hate	-7243
herb	-7244
heur	-7245
idge	-7246
isks	-7247
ivel	-7248
lant	-7249
late	-7250
nall	-7251
nals	-7252
ordN	-7253
ords	-7254
pter	-7255
rate	-7256
riet	-7257
sour	-7258
stal	-7259
vies	-7260
▁Bri	-7261
▁Dic	-7262
▁Dom	-7263
▁Don	-7264
▁Lis	-7265
▁fri	-7266
▁syn	-7267
▁tri	-7268
abata	-7269
agate	-7270
ctres	-7271
ectic	-7272
istri	-7273
itect	-7274
ither	-7275
openh	-7276
ovemb	-7277
reate	-7278
resul	-7279
rough	-7280
unres	-7281
urnal	-7282
▁(#13	-7283
▁Pres	-7284
▁stri	-7285
Criter	-7286
abelNE	-7287
aborat	-7288
action	-7289
adelph	-7290
aining	-7291
aitian	-7292
akahas	-7293
alangu	-7294
alents	-7295
allmer	-7296
aluate	-7297
ameter	-7298
anguin	-7299
(1	-7300
Ka	-7301
ST	-7302
Ta	-7303
ze	-7304
Har	-7305
Kor	-7306
acr	-7307
ayb	-7308
bac	-7309
dem	-7310
eta	-7311
igm	-7312
imp	-7313
lac	-7314
mpt	-7315
oll	-7316
opt	-7317
pla	-7318
ppl	-7319
pti	-7320
ptr	-7321
pts	-7322
▁16	-7323
▁Cr	-7324
▁Wa	-7325
▁Wo	-7326
Your	-7327
alog	-7328
anaz	-7329
anin	-7330
cert	-7331
dary	-7332
emph	-7333
empl	-7334
eros	-7335
etat	-7336
ever	-7337
ferr	-7338
iary	-7339
imal	-7340
iver	-7341
jour	-7342
lies	-7343
oryw	-7344
ours	-7345
ourt	-7346
phys	-7347
pler	-7348
ptom	-7349
rame	-7350
rary	-7351
roac	-7352
thes	-7353
uary	-7354
unim	-7355
uver	-7356
▁Bac	-7357
▁Oly	-7358
▁Wil	-7359
▁bac	-7360
▁cas	-7361
▁end	-7362
▁fre	-7363
acrit	-7364
emory	-7365
fered	-7366
iable	-7367
imary	-7368
lying	-7369
onfer	-7370
pline	-7371
pting	-7372
ulary	-7373
upper	-7374
verag	-7375
veral	-7376
vered	-7377
▁Aver	-7378
▁arch	-7379
▁asso	-7380
▁dram	-7381
▁obst	-7382
▁purp	-7383
▁repl	-7384
▁stor	-7385
▁tapp	-7386
▁ther	-7387
antics	-7388
anuary	-7389
apabil	-7390
aplace	-7391
arance	-7392
archer	-7393
arches	-7394
arious	-7395
arlies	-7396
ashing	-7397
asticG	-7398
asures	-7399
.4	-7400
UB	-7401
US	-7402
lm	-7403
rn	-7404
zu	-7405
7.4	-7406
Lin	-7407
agr	-7408
cen	-7409
cke	-7410
ead	-7411
erf	-7412
kee	-7413
loc	-7414
oke	-7415
toc	-7416
urv	-7417
ush	-7418
voc	-7419
▁HL	-7420
▁Ha	-7421
▁NI	-7422
▁No	-7423
▁Nu	-7424
▁RN	-7425
▁SE	-7426
▁ke	-7427
abet	-7428
aint	-7429
alys	-7430
ariz	-7431
hind	-7432
iali	-7433
lled	-7434
main	-7435
ocab	-7436
ocat	-7437
ococ	-7438
orth	-7439
ptoc	-7440
rain	-7441
rank	-7442
ritt	-7443
ross	-7444
russ	-7445
uctu	-7446
▁Hal	-7447
▁Han	-7448
▁Has	-7449
▁Inj	-7450
▁Int	-7451
▁Not	-7452
▁Pen	-7453
▁Yuz	-7454
▁foc	-7455
▁mad	-7456
▁var	-7457
▁whi	-7458
adial	-7459
assed	-7460
aying	-7461
cisco	-7462
eanst	-7463
ectiv	-7464
esear	-7465
icial	-7466
ograp	-7467
ollow	-7468
olome	-7469
omial	-7470
ucted	-7471
uctur	-7472
urces	-7473
uting	-7474
▁2014	-7475
▁Bart	-7476
▁whic	-7477
ambrid	-7478
ategor	-7479
atever	-7480
atical	-7481
atrans	-7482
atrick	-7483
bution	-7484
cation	-7485
ceived	-7486
cement	-7487
cerned	-7488
ciated	-7489
cience	-7490
classn	-7491
compos	-7492
ctical	-7493
ctions	-7494
ctress	-7495
ctural	-7496
dinary	-7497
eaning	-7498
easure	-7499
49	-7500
Il	-7501
Ri	-7502
oi	-7503
rk	-7504
Giv	-7505
NAA	-7506
Net	-7507
ati	-7508
div	-7509
geb	-7510
gin	-7511
giv	-7512
hol	-7513
iop	-7514
nan	-7515
▁Av	-7516
▁Ka	-7517
▁du	-7518
▁vi	-7519
Gund	-7520
MIST	-7521
aced	-7522
aliv	-7523
anda	-7524
assn	-7525
cond	-7526
eers	-7527
elop	-7528
eriv	-7529
ingR	-7530
ivat	-7531
ivis	-7532
lass	-7533
oped	-7534
open	-7535
opic	-7536
oshi	-7537
pand	-7538
ptiv	-7539
usew	-7540
xist	-7541
▁Bel	-7542
▁Kor	-7543
▁Rec	-7544
▁Str	-7545
▁arb	-7546
▁quu	-7547
▁vas	-7548
▁vit	-7549
ained	-7550
andar	-7551
asses	-7552
cuits	-7553
ervic	-7554
ignif	-7555
iness	-7556
menti	-7557
ningR	-7558
oment	-7559
ophys	-7560
oping	-7561
pment	-7562
terop	-7563
under	-7564
▁Band	-7565
▁Jarg	-7566
▁Rece	-7567
▁Stre	-7568
▁alge	-7569
▁quat	-7570
anding	-7571
atures	-7572
eattle	-7573
eature	-7574
ecause	-7575
ection	-7576
ecutiv	-7577
edding	-7578
edited	-7579
eedfor	-7580
efined	-7581
emplif	-7582
enamed	-7583
enberg	-7584
enefit	-7585
enetic	-7586
enmark	-7587
enoted	-7588
entert	-7589
enting	-7590
entrop	-7591
enture	-7592
entury	-7593
equent	-7594
erabil	-7595
erally	-7596
erated	-7597
ercept	-7598
erence	-7599
cu	-7600
nz	-7601
tw	-7602
#15	-7603
Kin	-7604
ayf	-7605
clu	-7606
emp	-7607
las	-7608
lay	-7609
pec	-7610
ppe	-7611
say	-7612
tha	-7613
ucl	-7614
udi	-7615
utp	-7616
wed	-7617
▁Ba	-7618
▁CO	-7619
▁EM	-7620
ackg	-7621
ackp	-7622
alph	-7623
aniz	-7624
cles	-7625
ewiv	-7626
ilay	-7627
iliz	-7628
inhe	-7629
izab	-7630
oriz	-7631
peci	-7632
peed	-7633
rete	-7634
ript	-7635
sell	-7636
udit	-7637
uted	-7638
▁Jac	-7639
▁Zam	-7640
▁dec	-7641
▁dee	-7642
▁dep	-7643
▁eno	-7644
▁env	-7645
▁enz	-7646
▁exa	-7647
▁syl	-7648
▁sym	-7649
▁tow	-7650
Gates	-7651
ackag	-7652
antic	-7653
ename	-7654
ethod	-7655
goriz	-7656
ializ	-7657
izing	-7658
lular	-7659
uding	-7660
▁2009	-7661
▁2011	-7662
▁2019	-7663
▁2020	-7664
▁alth	-7665
▁circ	-7666
▁enig	-7667
▁excl	-7668
▁expl	-7669
▁incl	-7670
▁prod	-7671
▁stud	-7672
▁syst	-7673
anuals	-7674
atable	-7675
cesses	-7676
cribes	-7677
ergrad	-7678
ermine	-7679
escrib	-7680
essing	-7681
essons	-7682
estion	-7683
ethods	-7684
etween	-7685
etwork	-7686
ewives	-7687
format	-7688
gation	-7689
gative	-7690
geably	-7691
gether	-7692
gregat	-7693
herent	-7694
hology	-7695
ialect	-7696
ibrary	-7697
icolog	-7698
icrosc	-7699
Aw	-7700
In	-7701
Mo	-7702
Ra	-7703
ht	-7704
po	-7705
tu	-7706
10,	-7707
aku	-7708
bic	-7709
cei	-7710
hum	-7711
sid	-7712
ude	-7713
vak	-7714
xon	-7715
▁Gh	-7716
▁Gl	-7717
▁Go	-7718
▁Gr	-7719
akel	-7720
aken	-7721
aren	-7722
aten	-7723
chan	-7724
ewed	-7725
ints	-7726
iple	-7727
irus	-7728
mise	-7729
oard	-7730
oden	-7731
peak	-7732
pert	-7733
pple	-7734
ranç	-7735
reak	-7736
rint	-7737
roso	-7738
rote	-7739
sics	-7740
sive	-7741
zech	-7742
▁Dre	-7743
▁Gar	-7744
▁Gro	-7745
▁New	-7746
▁Pit	-7747
▁boo	-7748
▁obl	-7749
▁obt	-7750
▁onl	-7751
Torch	-7752
amics	-7753
ammal	-7754
ardiz	-7755
ganis	-7756
ients	-7757
imple	-7758
lable	-7759
pears	-7760
range	-7761
therh	-7762
thers	-7763
urity	-7764
utive	-7765
wther	-7766
▁Alic	-7767
▁Face	-7768
▁Kore	-7769
▁Tens	-7770
▁appl	-7771
▁bran	-7772
▁clon	-7773
▁coul	-7774
▁hard	-7775
▁nois	-7776
▁obel	-7777
▁spec	-7778
comple	-7779
ective	-7780
icable	-7781
icroso	-7782
idence	-7783
iduals	-7784
iently	-7785
igence	-7786
ighted	-7787
ighter	-7788
iginal	-7789
igital	-7790
ilable	-7791
iladel	-7792
ilding	-7793
illion	-7794
ilolog	-7795
imised	-7796
imited	-7797
impler	-7798
import	-7799
FO	-7800
PH	-7801
eW	-7802
Gun	-7803
Oct	-7804
Val	-7805
agm	-7806
bes	-7807
hei	-7808
hia	-7809
iax	-7810
ify	-7811
mor	-7812
obl	-7813
ods	-7814
riv	-7815
sed	-7816
uti	-7817
wiv	-7818
▁na	-7819
▁wi	-7820
Crit	-7821
aceh	-7822
anob	-7823
blis	-7824
ectu	-7825
emia	-7826
eria	-7827
lems	-7828
lish	-7829
long	-7830
mbit	-7831
nost	-7832
omed	-7833
onic	-7834
pact	-7835
pers	-7836
rong	-7837
ture	-7838
▁Kon	-7839
▁Nex	-7840
▁Rot	-7841
▁Wal	-7842
▁adv	-7843
▁ide	-7844
achus	-7845
actor	-7846
bject	-7847
esson	-7848
grams	-7849
guide	-7850
ideos	-7851
ifies	-7852
ising	-7853
ngine	-7854
ostat	-7855
osted	-7856
otide	-7857
ucate	-7858
uture	-7859
▁2022	-7860
▁Rich	-7861
▁conc	-7862
▁creo	-7863
▁mach	-7864
▁pers	-7865
▁post	-7866
▁sele	-7867
ackers	-7868
actory	-7869
inated	-7870
inates	-7871
inding	-7872
ingles	-7873
ingred	-7874
inguis	-7875
inican	-7876
inners	-7877
iology	-7878
ionics	-7879
irable	-7880
irates	-7881
irical	-7882
istics	-7883
itolog	-7884
ivides	-7885
lation	-7886
lative	-7887
lelism	-7888
lement	-7889
lexion	-7890
llable	-7891
llness	-7892
lorida	-7893
lowing	-7894
mbolic	-7895
member	-7896
mental	-7897
mented	-7898
mology	-7899
Da	-7900
Ve	-7901
lc	-7902
▁	-7903
e	-7904
a	-7905
i	-7906
t	-7907
n	-7908
o	-7909
s	-7910
r	-7911
c	-7912
l	-7913
h	-7914
d	-7915
u	-7916
m	-7917
g	-7918
p	-7919
f	-7920
y	-7921
b	-7922
,	-7923
=	-7924
w	-7925
.	-7926
v	-7927
k	-7928
P	-7929
T	-7930
S	-7931
M	-7932
A	-7933
C	-7934
L	-7935
0	-7936
E	-7937
I	-7938
x	-7939
2	-7940
N	-7941
"	-7942
1	-7943
-	-7944
(	-7945
)	-7946
R	-7947
O	-7948
F	-7949
J	-7950
B	-7951
D	-7952
q	-7953
z	-7954
9	-7955
W	-7956
:	-7957
H	-7958
j	-7959
K	-7960
U	-7961
G	-7962
3	-7963
V	-7964
'	-7965
7	-7966
6	-7967
–	-7968
8	-7969
5	-7970
Q	-7971
4	-7972
#	-7973
/	-7974
;	-7975
Y	-7976
Z	-7977
+	-7978
[	-7979
]	-7980
%	-7981
§	-7982
ç	-7983
é	-7984
ō	-7985
—	-7986
嘉	-7987
堂	-7988
川	-7989
珍	-7990
畑	-7991
福	-7992
要	-7993
邦	-7994
